{
  "version": "1.0",
  "truncation": null,
  "padding": null,
  "added_tokens": [
    {
      "id": 0,
      "content": "<unk>",
      "single_word": false,
      "lstrip": false,
      "rstrip": false,
      "normalized": false,
      "special": true
    },
    {
      "id": 1,
      "content": "<pad>",
      "single_word": false,
      "lstrip": false,
      "rstrip": false,
      "normalized": false,
      "special": true
    },
    {
      "id": 2,
      "content": "<s>",
      "single_word": false,
      "lstrip": false,
      "rstrip": false,
      "normalized": false,
      "special": true
    },
    {
      "id": 3,
      "content": "</s>",
      "single_word": false,
      "lstrip": false,
      "rstrip": false,
      "normalized": false,
      "special": true
    }
  ],
  "normalizer": {
    "type": "NFKC"
  },
  "pre_tokenizer": {
    "type": "Metaspace",
    "replacement": "▁",
    "add_prefix_space": true,
    "prepend_scheme": "always"
  },
  "post_processor": null,
  "decoder": {
    "type": "Metaspace",
    "replacement": "▁",
    "add_prefix_space": true,
    "prepend_scheme": "always"
  },
  "model": {
    "type": "BPE",
    "dropout": null,
    "unk_token": "<unk>",
    "continuing_subword_prefix": null,
    "end_of_word_suffix": null,
    "fuse_unk": false,
    "byte_fallback": false,
    "vocab": {
      "<unk>": 0,
      "\b": 1,
      "\t": 2,
      "\n": 3,
      "\r": 4,
      "!": 5,
      "\"": 6,
      "#": 7,
      "$": 8,
      "%": 9,
      "&": 10,
      "'": 11,
      "(": 12,
      ")": 13,
      "*": 14,
      "+": 15,
      ",": 16,
      "-": 17,
      ".": 18,
      "/": 19,
      "0": 20,
      "1": 21,
      "2": 22,
      "3": 23,
      "4": 24,
      "5": 25,
      "6": 26,
      "7": 27,
      "8": 28,
      "9": 29,
      ":": 30,
      ";": 31,
      "<": 32,
      "=": 33,
      ">": 34,
      "?": 35,
      "@": 36,
      "A": 37,
      "B": 38,
      "C": 39,
      "D": 40,
      "E": 41,
      "F": 42,
      "G": 43,
      "H": 44,
      "I": 45,
      "J": 46,
      "K": 47,
      "L": 48,
      "M": 49,
      "N": 50,
      "O": 51,
      "P": 52,
      "Q": 53,
      "R": 54,
      "S": 55,
      "T": 56,
      "U": 57,
      "V": 58,
      "W": 59,
      "X": 60,
      "Y": 61,
      "Z": 62,
      "[": 63,
      "\\": 64,
      "]": 65,
      "^": 66,
      "_": 67,
      "`": 68,
      "a": 69,
      "b": 70,
      "c": 71,
      "d": 72,
      "e": 73,
      "f": 74,
      "g": 75,
      "h": 76,
      "i": 77,
      "j": 78,
      "k": 79,
      "l": 80,
      "m": 81,
      "n": 82,
      "o": 83,
      "p": 84,
      "q": 85,
      "r": 86,
      "s": 87,
      "t": 88,
      "u": 89,
      "v": 90,
      "w": 91,
      "x": 92,
      "y": 93,
      "z": 94,
      "{": 95,
      "|": 96,
      "}": 97,
      "~": 98,
      "¡": 99,
      "£": 100,
      "¥": 101,
      "°": 102,
      "¿": 103,
      "É": 104,
      "Ö": 105,
      "á": 106,
      "ã": 107,
      "ä": 108,
      "ç": 109,
      "è": 110,
      "é": 111,
      "ë": 112,
      "í": 113,
      "î": 114,
      "ñ": 115,
      "ó": 116,
      "ô": 117,
      "ö": 118,
      "÷": 119,
      "ø": 120,
      "ú": 121,
      "ü": 122,
      "ǎ": 123,
      "ǐ": 124,
      "̈": 125,
      "α": 126,
      "θ": 127,
      "μ": 128,
      "π": 129,
      "ψ": 130,
      "П": 131,
      "а": 132,
      "в": 133,
      "д": 134,
      "е": 135,
      "и": 136,
      "к": 137,
      "л": 138,
      "м": 139,
      "р": 140,
      "т": 141,
      "،": 142,
      "؟": 143,
      "ا": 144,
      "ب": 145,
      "ح": 146,
      "ر": 147,
      "ف": 148,
      "ك": 149,
      "ل": 150,
      "م": 151,
      "ي": 152,
      "​": 153,
      "‌": 154,
      "–": 155,
      "—": 156,
      "‘": 157,
      "’": 158,
      "€": 159,
      "₹": 160,
      "√": 161,
      "▁": 162,
      "☀": 163,
      "☕": 164,
      "⟩": 165,
      "、": 166,
      "。": 167,
      "お": 168,
      "か": 169,
      "こ": 170,
      "す": 171,
      "ち": 172,
      "で": 173,
      "に": 174,
      "の": 175,
      "は": 176,
      "を": 177,
      "ん": 178,
      "上": 179,
      "下": 180,
      "不": 181,
      "个": 182,
      "中": 183,
      "串": 184,
      "主": 185,
      "了": 186,
      "事": 187,
      "于": 188,
      "些": 189,
      "产": 190,
      "以": 191,
      "你": 192,
      "例": 193,
      "供": 194,
      "保": 195,
      "值": 196,
      "元": 197,
      "充": 198,
      "入": 199,
      "全": 200,
      "其": 201,
      "具": 202,
      "函": 203,
      "划": 204,
      "列": 205,
      "前": 206,
      "功": 207,
      "加": 208,
      "包": 209,
      "单": 210,
      "句": 211,
      "可": 212,
      "合": 213,
      "同": 214,
      "含": 215,
      "和": 216,
      "品": 217,
      "在": 218,
      "地": 219,
      "填": 220,
      "增": 221,
      "复": 222,
      "多": 223,
      "好": 224,
      "字": 225,
      "宣": 226,
      "将": 227,
      "序": 228,
      "应": 229,
      "式": 230,
      "性": 231,
      "成": 232,
      "据": 233,
      "描": 234,
      "提": 235,
      "插": 236,
      "数": 237,
      "文": 238,
      "日": 239,
      "明": 240,
      "更": 241,
      "有": 242,
      "期": 243,
      "本": 244,
      "机": 245,
      "杂": 246,
      "条": 247,
      "构": 248,
      "样": 249,
      "格": 250,
      "每": 251,
      "気": 252,
      "法": 253,
      "测": 254,
      "涵": 255,
      "生": 256,
      "用": 257,
      "的": 258,
      "盖": 259,
      "目": 260,
      "确": 261,
      "示": 262,
      "空": 263,
      "符": 264,
      "約": 265,
      "组": 266,
      "结": 267,
      "能": 268,
      "行": 269,
      "表": 270,
      "要": 271,
      "言": 272,
      "語": 273,
      "説": 274,
      "计": 275,
      "订": 276,
      "试": 277,
      "语": 278,
      "购": 279,
      "这": 280,
      "进": 281,
      "述": 282,
      "都": 283,
      "键": 284,
      "非": 285,
      "面": 286,
      "顺": 287,
      "风": 288,
      "️": 289,
      "�": 290,
      "🍕": 291,
      "🎉": 292,
      "💪": 293,
      "🔥": 294,
      "😀": 295,
      "😉": 296,
      "😊": 297,
      "😞": 298,
      "🙏": 299,
      ",\n": 300,
      "AR": 301,
      "TA": 302,
      "TE": 303,
      "NT": 304,
      "▁I": 305,
      "RE": 306,
      "LE": 307,
      "▁INT": 308,
      "ATE": 309,
      "BLE": 310,
      "▁TA": 311,
      "▁TABLE": 312,
      "▁(": 313,
      "##": 314,
      "IM": 315,
      "▁V": 316,
      "▁K": 317,
      "▁N": 318,
      "CH": 319,
      "CHAR": 320,
      "▁VAR": 321,
      "▁VARCHAR": 322,
      "EY": 323,
      ");": 324,
      "▁KEY": 325,
      "▁VARCHAR(": 326,
      "\n);": 327,
      "CRE": 328,
      "CREATE": 329,
      "▁(\n": 330,
      "▁P": 331,
      "▁PR": 332,
      "ARY": 333,
      "▁PRIM": 334,
      "▁PRIMARY": 335,
      "),\n": 336,
      "▁S": 337,
      "▁D": 338,
      "▁KEY,\n": 339,
      "▁##": 340,
      "▁###": 341,
      "\n\n": 342,
      "\n);\n\n": 343,
      "\n);\n\nCREATE": 344,
      "ES": 345,
      "UL": 346,
      "OT": 347,
      "▁NOT": 348,
      "ULL": 349,
      "▁NULL": 350,
      "▁_": 351,
      "50": 352,
      "▁INT,\n": 353,
      "AL": 354,
      "▁VARCHAR(50": 355,
      "▁NULL,\n": 356,
      "10": 357,
      "▁VARCHAR(2": 358,
      "▁U": 359,
      "ERE": 360,
      "▁F": 361,
      "ME": 362,
      "__": 363,
      "▁T": 364,
      "DA": 365,
      "55": 366,
      "MENT": 367,
      "▁STA": 368,
      "DATA": 369,
      "TEMENT": 370,
      "▁STATEMENT": 371,
      "▁TABLEDATA": 372,
      "▁CREATE": 373,
      "XT": 374,
      "▁'": 375,
      "▁VARCHAR(255": 376,
      "▁DATE": 377,
      "▁TE": 378,
      "▁TEXT": 379,
      "ER": 380,
      "NC": 381,
      "▁DE": 382,
      "▁W": 383,
      "▁VARCHAR(50),\n": 384,
      "ID": 385,
      "▁DATE,\n": 386,
      "▁UU": 387,
      "▁UUID": 388,
      "▁RE": 389,
      "▁TEXT,\n": 390,
      "▁REF": 391,
      "NCES": 392,
      "ERENCES": 393,
      "▁REFERENCES": 394,
      "MP": 395,
      "▁TIM": 396,
      "',": 397,
      "▁2": 398,
      "CIM": 399,
      "▁DECIM": 400,
      "▁DECIMAL": 401,
      "▁VARCHAR(10": 402,
      "ESTA": 403,
      "ESTAMP": 404,
      "▁TIMESTAMP": 405,
      "▁B": 406,
      "▁VARCHAR(50)": 407,
      "▁VARCHAR(255),\n": 408,
      "▁=": 409,
      "RO": 410,
      "▁1": 411,
      "▁VARCHAR(100": 412,
      "▁KEY\n);\n\nCREATE": 413,
      "▁WH": 414,
      "▁A": 415,
      "▁WHERE": 416,
      "▁SE": 417,
      "ROM": 418,
      "▁FROM": 419,
      "▁O": 420,
      "▁VARCHAR(255)": 421,
      "▁IN": 422,
      "00": 423,
      "▁J": 424,
      "CT": 425,
      "▁TIMESTAMP,\n": 426,
      "▁3": 427,
      "LO": 428,
      "▁t": 429,
      "AT": 430,
      "▁DECIMAL(": 431,
      "▁0": 432,
      "▁C": 433,
      "20": 434,
      "▁f": 435,
      "▁a": 436,
      "IAL": 437,
      "▁5": 438,
      "ERIAL": 439,
      "▁SERIAL": 440,
      "▁p": 441,
      "▁s": 442,
      "LECT": 443,
      "▁c": 444,
      "ERT": 445,
      "SERT": 446,
      "▁INSERT": 447,
      "▁SELECT": 448,
      "▁INTO": 449,
      "ALU": 450,
      "ALUES": 451,
      "▁VALUES": 452,
      "▁4": 453,
      "▁L": 454,
      "▁G": 455,
      "▁i": 456,
      "-0": 457,
      "▁d": 458,
      "▁r": 459,
      "▁FLO": 460,
      "▁FLOAT": 461,
      "▁e": 462,
      "▁8": 463,
      "▁7": 464,
      "▁m": 465,
      "▁E": 466,
      "▁o": 467,
      "▁6": 468,
      "▁u": 469,
      "▁Y": 470,
      "▁M": 471,
      "▁w": 472,
      "▁l": 473,
      "▁n": 474,
      "▁H": 475,
      "▁9": 476,
      "▁b": 477,
      "▁v": 478,
      "▁h": 479,
      "▁g": 480,
      "▁R": 481,
      "▁y": 482,
      "▁q": 483,
      "▁k": 484,
      "▁j": 485,
      "▁x": 486,
      "▁Q": 487,
      "▁z": 488,
      "▁X": 489,
      "▁Z": 490,
      "10,": 491,
      "▁DECIMAL(10,": 492,
      "▁VARCHAR(100),\n": 493,
      "▁INT\n);\n\nCREATE": 494,
      "22": 495,
      "▁NULL\n);\n\nCREATE": 496,
      "▁VARCHAR(100)": 497,
      "▁'20": 498,
      "▁KEY\n);": 499,
      "k_": 500,
      "l_": 501,
      "e_": 502,
      "▁FLOAT,\n": 503,
      "n_": 504,
      "t_": 505,
      "r_": 506,
      "g_": 507,
      "x_": 508,
      "m_": 509,
      "d_": 510,
      "y_": 511,
      "w_": 512,
      "IN": 513,
      "G_": 514,
      "a_": 515,
      "b_": 516,
      "p_": 517,
      "q_": 518,
      "h_": 519,
      "V_": 520,
      "s_": 521,
      "J_": 522,
      "F_": 523,
      "f_": 524,
      "o_": 525,
      "z_": 526,
      "j_": 527,
      "c_": 528,
      "8_": 529,
      "Q_": 530,
      "7_": 531,
      "W_": 532,
      "3_": 533,
      "X_": 534,
      "9_": 535,
      "6_": 536,
      "I_": 537,
      "u_": 538,
      "1_": 539,
      "B_": 540,
      "4_": 541,
      "v_": 542,
      "K_": 543,
      "U_": 544,
      "i_": 545,
      "Z_": 546,
      "S_": 547,
      "H_": 548,
      "C_": 549,
      "2_": 550,
      "M_": 551,
      "Y_": 552,
      "N_": 553,
      "5_": 554,
      "D_": 555,
      "P_": 556,
      "O_": 557,
      "A_": 558,
      "L_": 559,
      "▁DECIMAL,\n": 560,
      "R_": 561,
      "▁'2022": 562,
      "1,": 563,
      "0_": 564,
      ")\n);\n\nCREATE": 565,
      "E_": 566,
      "T_": 567,
      "15": 568,
      "RU": 569,
      "-01": 570,
      "PD": 571,
      "▁10": 572,
      "▁BY": 573,
      "er": 574,
      "▁VARCHAR(20": 575,
      "');": 576,
      "▁VARCHAR,\n": 577,
      "12": 578,
      "RD": 579,
      "le": 580,
      "TR": 581,
      "in": 582,
      "on": 583,
      "▁VARCHAR(50)\n);\n\nCREATE": 584,
      "45": 585,
      "at": 586,
      "▁TRU": 587,
      "OO": 588,
      "▁TEXT\n);\n\nCREATE": 589,
      "LETE": 590,
      "▁DELETE": 591,
      "AN": 592,
      "en": 593,
      "▁2),\n": 594,
      "▁INT\n);": 595,
      "';": 596,
      "▁SET": 597,
      "NCATE": 598,
      "▁TRUNCATE": 599,
      "PDATE": 600,
      "▁UPDATE": 601,
      "▁NULL\n);": 602,
      "▁DATE\n);\n\nCREATE": 603,
      "or": 604,
      "▁(1,": 605,
      "it": 606,
      "om": 607,
      "ic": 608,
      "▁UUID,\n": 609,
      "an": 610,
      ":00": 611,
      "es": 612,
      "ING": 613,
      "ND": 614,
      "▁ORD": 615,
      "▁ORDER": 616,
      "▁VARCHAR(255)\n);\n\nCREATE": 617,
      "am": 618,
      "IQ": 619,
      "ed": 620,
      "UE": 621,
      "TRING": 622,
      "▁STRING": 623,
      "ar": 624,
      "oh": 625,
      "5,": 626,
      "al": 627,
      "▁BOO": 628,
      "▁VARCHAR(20),\n": 629,
      "ON": 630,
      "▁('": 631,
      "LEAN": 632,
      "▁BOOLEAN": 633,
      "89": 634,
      "-4": 635,
      "▁__": 636,
      "▁*": 637,
      "ct": 638,
      "oe": 639,
      "SC": 640,
      "30": 641,
      "ro": 642,
      "67": 643,
      "▁>": 644,
      "ex": 645,
      ")\n);": 646,
      "23": 647,
      "ESC": 648,
      "▁DESC": 649,
      "2,": 650,
      "▁DECIMAL(10,2": 651,
      "▁'2022-01": 652,
      "▁'2022-0": 653,
      "re": 654,
      "17": 655,
      "▁STRING,\n": 656,
      "66": 657,
      "▁AND": 658,
      "▁UN": 659,
      "21": 660,
      "ou": 661,
      "▁VARCHAR(50)\n);": 662,
      "d3": 663,
      "14": 664,
      "IQUE": 665,
      "▁UNIQUE": 666,
      "▁TEXT\n);": 667,
      "as": 668,
      "IG": 669,
      "ew": 670,
      "is": 671,
      "ot": 672,
      "▁1;": 673,
      "▁TIMESTAMP\n);\n\nCREATE": 674,
      "-15": 675,
      "em": 676,
      "et": 677,
      "ch": 678,
      "▁VARCHAR(10),\n": 679,
      "il": 680,
      "▁DATE\n);": 681,
      "▁VARCHAR(255)\n);": 682,
      "FA": 683,
      "▁BOOLEAN,\n": 684,
      "▁VARCHAR(15": 685,
      "___": 686,
      "11": 687,
      "iv": 688,
      "ab": 689,
      "ol": 690,
      "99": 691,
      "3e": 692,
      "ag": 693,
      "nt": 694,
      "OU": 695,
      "el": 696,
      "ad": 697,
      "ig": 698,
      "IK": 699,
      "16": 700,
      "us": 701,
      "▁JS": 702,
      "ohn": 703,
      "▁DESC;": 704,
      "ce": 705,
      "ur": 706,
      "Al": 707,
      "87": 708,
      "UM": 709,
      "UP": 710,
      "▁2)": 711,
      "▁(_": 712,
      "DE": 713,
      "um": 714,
      "18": 715,
      "ion": 716,
      "▁JSON": 717,
      "os": 718,
      "pp": 719,
      "31": 720,
      "du": 721,
      "IT": 722,
      "IS": 723,
      "▁INTE": 724,
      "ec": 725,
      "ac": 726,
      "pt": 727,
      "ow": 728,
      "25": 729,
      "▁50": 730,
      "65": 731,
      "im": 732,
      "01": 733,
      "og": 734,
      "WE": 735,
      "44": 736,
      "▁VARCHAR(100)\n);\n\nCREATE": 737,
      "ob": 738,
      "ff": 739,
      "▁ON": 740,
      "ut": 741,
      "-12": 742,
      "ET": 743,
      "ul": 744,
      "ple": 745,
      "ay": 746,
      "')": 747,
      "a7": 748,
      "od": 749,
      "TZ": 750,
      "▁TIME": 751,
      "nd": 752,
      "43": 753,
      "▁1,": 754,
      "oc": 755,
      "▁DECIMAL(10,2),\n": 756,
      "19": 757,
      "ef": 758,
      "EN": 759,
      "com": 760,
      "ir": 761,
      "ue": 762,
      "pd": 763,
      "id": 764,
      "34": 765,
      "75": 766,
      "cc": 767,
      "80": 768,
      "if": 769,
      "9b": 770,
      "av": 771,
      "st": 772,
      "RV": 773,
      "33": 774,
      "(_": 775,
      "In": 776,
      "eg": 777,
      "8b": 778,
      "ht": 779,
      "AV": 780,
      "2b": 781,
      "pl": 782,
      "6b": 783,
      "ng": 784,
      "ing": 785,
      "85": 786,
      "SE": 787,
      "-10": 788,
      "sm": 789,
      "ev": 790,
      "St": 791,
      "84": 792,
      "8f": 793,
      "Ch": 794,
      "GER": 795,
      "op": 796,
      "AP": 797,
      "1b": 798,
      "af": 799,
      "8d": 800,
      "a0": 801,
      "cr": 802,
      "6f": 803,
      "90": 804,
      "▁INTEGER": 805,
      "77": 806,
      "iz": 807,
      "VG": 808,
      "ak": 809,
      "BC": 810,
      "60": 811,
      "th": 812,
      "▁JO": 813,
      "64": 814,
      "a4": 815,
      "1d": 816,
      "a5": 817,
      "HY": 818,
      "cd": 819,
      "24": 820,
      "a9": 821,
      "OG": 822,
      "IC": 823,
      "6d": 824,
      "he": 825,
      "2f": 826,
      "3b": 827,
      "3d": 828,
      "ap": 829,
      "2d": 830,
      "456": 831,
      "ts": 832,
      "OW": 833,
      "▁VARCHAR(15),\n": 834,
      "ov": 835,
      "ik": 836,
      "ud": 837,
      "3,": 838,
      ".com": 839,
      "▁'2022-01-01": 840,
      "ib": 841,
      "▁100": 842,
      "9d": 843,
      "ub": 844,
      "oy": 845,
      "ample": 846,
      "Sm": 847,
      "9f": 848,
      "27": 849,
      "cb": 850,
      "un": 851,
      "eb": 852,
      "1f": 853,
      "tr": 854,
      "Im": 855,
      "97": 856,
      "c7": 857,
      "ps": 858,
      "3f": 859,
      "ly": 860,
      "Ad": 861,
      "Fr": 862,
      "c0": 863,
      "ok": 864,
      "wn": 865,
      "37": 866,
      "XY": 867,
      "95": 868,
      "gr": 869,
      "c4": 870,
      "cf": 871,
      "35": 872,
      "94": 873,
      "c5": 874,
      "iq": 875,
      "pr": 876,
      "se": 877,
      "FT": 878,
      "28": 879,
      "US": 880,
      "az": 881,
      "UR": 882,
      "ix": 883,
      "Ex": 884,
      "e5": 885,
      "e7": 886,
      "▁'J": 887,
      "of": 888,
      "AX": 889,
      "▁JOIN": 890,
      "ah": 891,
      "ip": 892,
      "aw": 893,
      "ax": 894,
      "ey": 895,
      "CK": 896,
      "cl": 897,
      "Dr": 898,
      "IP": 899,
      "Bv": 900,
      "Bl": 901,
      "Bq": 902,
      "JK": 903,
      "Br": 904,
      "aj": 905,
      "BY": 906,
      "aZ": 907,
      "up": 908,
      "ij": 909,
      "88": 910,
      "FK": 911,
      "QL": 912,
      "Ij": 913,
      "FZ": 914,
      "Hy": 915,
      "aq": 916,
      "iG": 917,
      "Jb": 918,
      "aK": 919,
      "ww": 920,
      "By": 921,
      "ox": 922,
      "aG": 923,
      "iY": 924,
      "Jz": 925,
      "Bm": 926,
      "Fl": 927,
      "JY": 928,
      "Fv": 929,
      "FG": 930,
      "IZ": 931,
      "ep": 932,
      "Iz": 933,
      "Bj": 934,
      "Bz": 935,
      "BK": 936,
      "Iy": 937,
      "Ib": 938,
      "Fq": 939,
      "JG": 940,
      "JZ": 941,
      "aY": 942,
      "Jm": 943,
      "Fb": 944,
      "Fk": 945,
      "Xv": 946,
      "ux": 947,
      "Fz": 948,
      "BZ": 949,
      "Bx": 950,
      "Jj": 951,
      "Bk": 952,
      "iZ": 953,
      "Jv": 954,
      "Pr": 955,
      "Fm": 956,
      "iK": 957,
      "Jq": 958,
      "Jx": 959,
      "Fy": 960,
      "oZ": 961,
      "e0": 962,
      "AY": 963,
      "Wv": 964,
      "e4": 965,
      "Ik": 966,
      "Jy": 967,
      "HK": 968,
      "Jk": 969,
      "iy": 970,
      "a6": 971,
      "ug": 972,
      "i0": 973,
      "▁(2,": 974,
      "example": 975,
      "IY": 976,
      "BG": 977,
      "Fj": 978,
      "Wm": 979,
      "FY": 980,
      "Iv": 981,
      "Ix": 982,
      "iV": 983,
      "Cl": 984,
      "Hq": 985,
      "oz": 986,
      "Jg": 987,
      "Fx": 988,
      "QK": 989,
      "JV": 990,
      "Bb": 991,
      "Un": 992,
      "Sh": 993,
      "Iq": 994,
      "oj": 995,
      "Wq": 996,
      "oG": 997,
      "Xq": 998,
      "Xy": 999,
      "Qm": 1000,
      "Us": 1001,
      "WG": 1002,
      "QY": 1003,
      "Xk": 1004,
      "QG": 1005,
      "Wk": 1006,
      "FV": 1007,
      "Qy": 1008,
      "Fg": 1009,
      "Bf": 1010,
      "WZ": 1011,
      "uy": 1012,
      "WK": 1013,
      "HZ": 1014,
      "Em": 1015,
      "Ff": 1016,
      "If": 1017,
      "Am": 1018,
      "Hv": 1019,
      "XK": 1020,
      "Hk": 1021,
      "QZ": 1022,
      "Av": 1023,
      "Wb": 1024,
      "Ph": 1025,
      "Wy": 1026,
      "Jf": 1027,
      "oq": 1028,
      "Bg": 1029,
      "Xx": 1030,
      "Qx": 1031,
      "Hz": 1032,
      "F0": 1033,
      "Qq": 1034,
      "Wh": 1035,
      "Ig": 1036,
      "Xb": 1037,
      "CG": 1038,
      "Pl": 1039,
      "aV": 1040,
      "My": 1041,
      "UG": 1042,
      "oY": 1043,
      "Qk": 1044,
      "XG": 1045,
      "Wx": 1046,
      "2j": 1047,
      "BV": 1048,
      "B7": 1049,
      "XZ": 1050,
      "It": 1051,
      "Qj": 1052,
      "Hj": 1053,
      "WY": 1054,
      "IV": 1055,
      "Qz": 1056,
      "i7": 1057,
      "HG": 1058,
      "2m": 1059,
      "Bd": 1060,
      "='": 1061,
      "Mq": 1062,
      "uv": 1063,
      "uq": 1064,
      "Qv": 1065,
      "oV": 1066,
      "uf": 1067,
      "Ir": 1068,
      "Wj": 1069,
      "cy": 1070,
      "2k": 1071,
      "Xm": 1072,
      "Xz": 1073,
      "uY": 1074,
      "HV": 1075,
      "Hb": 1076,
      "UY": 1077,
      "Mb": 1078,
      "Sy": 1079,
      "Hx": 1080,
      "Uz": 1081,
      "Xj": 1082,
      "Qb": 1083,
      "Uv": 1084,
      "2K": 1085,
      "Hm": 1086,
      "Xf": 1087,
      "F4": 1088,
      "Fd": 1089,
      "Fh": 1090,
      "Qg": 1091,
      "uZ": 1092,
      "Wf": 1093,
      "Wg": 1094,
      "Jh": 1095,
      "iw": 1096,
      "oK": 1097,
      "Is": 1098,
      "Wr": 1099,
      "2x": 1100,
      "MY": 1101,
      "WV": 1102,
      "F7": 1103,
      "Mk": 1104,
      "Wz": 1105,
      "As": 1106,
      "QV": 1107,
      "Mj": 1108,
      "Ih": 1109,
      "Uj": 1110,
      "J0": 1111,
      "Uk": 1112,
      "Jw": 1113,
      "Ub": 1114,
      "2z": 1115,
      "Cr": 1116,
      "uG": 1117,
      "Fw": 1118,
      "eh": 1119,
      "uj": 1120,
      "Ux": 1121,
      "2v": 1122,
      "MG": 1123,
      "XV": 1124,
      "Uy": 1125,
      "Iw": 1126,
      "F5": 1127,
      "2Z": 1128,
      "MK": 1129,
      "▁<": 1130,
      "UK": 1131,
      "B0": 1132,
      "2q": 1133,
      "I0": 1134,
      "UZ": 1135,
      "aL": 1136,
      "Mm": 1137,
      "Um": 1138,
      "Xh": 1139,
      "Id": 1140,
      "Mx": 1141,
      "I5": 1142,
      "uk": 1143,
      "ih": 1144,
      "26": 1145,
      "Xg": 1146,
      "8Y": 1147,
      "8z": 1148,
      "IL": 1149,
      "uK": 1150,
      "Mz": 1151,
      "Ab": 1152,
      "8K": 1153,
      "iL": 1154,
      "RY": 1155,
      "Jd": 1156,
      "AG": 1157,
      "I7": 1158,
      "MZ": 1159,
      "Hg": 1160,
      "2y": 1161,
      "o7": 1162,
      "FL": 1163,
      "8q": 1164,
      "Bw": 1165,
      "Jl": 1166,
      "Bs": 1167,
      "2G": 1168,
      "29": 1169,
      "Bh": 1170,
      "An": 1171,
      "Qr": 1172,
      "JL": 1173,
      "FD": 1174,
      "uz": 1175,
      "NG": 1176,
      "i5": 1177,
      "▁FLOAT\n);\n\nCREATE": 1178,
      "Sk": 1179,
      "pg": 1180,
      "PG": 1181,
      "Xl": 1182,
      "o0": 1183,
      "ph": 1184,
      "Fs": 1185,
      "J7": 1186,
      "Js": 1187,
      "Ob": 1188,
      "Aj": 1189,
      "Uq": 1190,
      "B4": 1191,
      "Jr": 1192,
      "Th": 1193,
      "i4": 1194,
      "J4": 1195,
      "Hf": 1196,
      "Ww": 1197,
      "Bt": 1198,
      "Or": 1199,
      "B5": 1200,
      "SG": 1201,
      "1k": 1202,
      "Fn": 1203,
      "Qf": 1204,
      "UV": 1205,
      "Jt": 1206,
      "8h": 1207,
      "Cm": 1208,
      "Mg": 1209,
      "BD": 1210,
      "8G": 1211,
      "Ur": 1212,
      "2Y": 1213,
      "Q7": 1214,
      "Ar": 1215,
      "2V": 1216,
      "Aq": 1217,
      "Mv": 1218,
      "Mf": 1219,
      "8m": 1220,
      "oL": 1221,
      "NY": 1222,
      "8y": 1223,
      "uV": 1224,
      "Oz": 1225,
      "Az": 1226,
      "Sb": 1227,
      "86": 1228,
      "Uf": 1229,
      "Ug": 1230,
      "Xr": 1231,
      "Il": 1232,
      "OZ": 1233,
      "Ak": 1234,
      "Qh": 1235,
      "SY": 1236,
      "Qd": 1237,
      "JD": 1238,
      "Bn": 1239,
      "Py": 1240,
      "OY": 1241,
      "Hr": 1242,
      "8x": 1243,
      "Ql": 1244,
      "Cy": 1245,
      "Q0": 1246,
      "Ay": 1247,
      "2l": 1248,
      "Ax": 1249,
      "Xs": 1250,
      "BL": 1251,
      "Hd": 1252,
      "Md": 1253,
      "Sq": 1254,
      "1x": 1255,
      "H0": 1256,
      "WL": 1257,
      "Xw": 1258,
      "J5": 1259,
      "Pk": 1260,
      "8v": 1261,
      "Ag": 1262,
      "o5": 1263,
      "8Z": 1264,
      "HL": 1265,
      "X7": 1266,
      "Q5": 1267,
      "X0": 1268,
      "3m": 1269,
      "example.com": 1270,
      "PK": 1271,
      "Ul": 1272,
      "Ov": 1273,
      "1m": 1274,
      "Oq": 1275,
      "Xd": 1276,
      "W5": 1277,
      "Hw": 1278,
      "MV": 1279,
      "Q4": 1280,
      "XL": 1281,
      "W7": 1282,
      "Ox": 1283,
      "8k": 1284,
      "iD": 1285,
      "Hh": 1286,
      "SZ": 1287,
      "Xt": 1288,
      "Oy": 1289,
      "Oj": 1290,
      "u7": 1291,
      "I4": 1292,
      "W0": 1293,
      "3y": 1294,
      "Wl": 1295,
      "AZ": 1296,
      "Qw": 1297,
      "8j": 1298,
      "2g": 1299,
      "OV": 1300,
      "Cj": 1301,
      "Wd": 1302,
      "Sv": 1303,
      "Uw": 1304,
      "aD": 1305,
      "Hl": 1306,
      "2L": 1307,
      "3j": 1308,
      "Ud": 1309,
      "Pq": 1310,
      "1z": 1311,
      "W4": 1312,
      "Jn": 1313,
      "AK": 1314,
      "Sz": 1315,
      "Rz": 1316,
      "Sj": 1317,
      "1q": 1318,
      "Pj": 1319,
      "Sx": 1320,
      "Pz": 1321,
      "Mr": 1322,
      "Af": 1323,
      "Rm": 1324,
      "Nx": 1325,
      "3k": 1326,
      "H4": 1327,
      "Ok": 1328,
      "Rq": 1329,
      "8V": 1330,
      "SK": 1331,
      "Wn": 1332,
      "Xn": 1333,
      "1y": 1334,
      "RK": 1335,
      "2w": 1336,
      "Ws": 1337,
      "3Z": 1338,
      "1Y": 1339,
      "OK": 1340,
      "Ut": 1341,
      "cx": 1342,
      "H5": 1343,
      "WD": 1344,
      "H7": 1345,
      "uh": 1346,
      "Px": 1347,
      "2h": 1348,
      "Qn": 1349,
      "Rx": 1350,
      "U7": 1351,
      "2s": 1352,
      "OL": 1353,
      "3z": 1354,
      "1j": 1355,
      "Rk": 1356,
      "8g": 1357,
      "Cb": 1358,
      "Ck": 1359,
      "1Z": 1360,
      "A0": 1361,
      "oD": 1362,
      "3Y": 1363,
      "RG": 1364,
      "3v": 1365,
      "XD": 1366,
      "3G": 1367,
      "Wt": 1368,
      "Nz": 1369,
      "Of": 1370,
      "Om": 1371,
      "M0": 1372,
      "Cv": 1373,
      "CV": 1374,
      "Sf": 1375,
      "PZ": 1376,
      "Ft": 1377,
      "ck": 1378,
      "Og": 1379,
      "Mw": 1380,
      "3q": 1381,
      "X4": 1382,
      "Ry": 1383,
      "Rv": 1384,
      "Pb": 1385,
      "Pv": 1386,
      "CZ": 1387,
      "1K": 1388,
      "PY": 1389,
      "Uh": 1390,
      "Sg": 1391,
      "u0": 1392,
      "1v": 1393,
      "Nk": 1394,
      "Mh": 1395,
      "AD": 1396,
      "9G": 1397,
      "SV": 1398,
      "NK": 1399,
      "Ny": 1400,
      "U4": 1401,
      "Nm": 1402,
      "3K": 1403,
      "Ht": 1404,
      "8r": 1405,
      "Cq": 1406,
      "M7": 1407,
      "On": 1408,
      "Hs": 1409,
      "Nj": 1410,
      "6Z": 1411,
      "Qt": 1412,
      "Hn": 1413,
      "9z": 1414,
      "Nq": 1415,
      "Cx": 1416,
      "Rb": 1417,
      "uL": 1418,
      "o4": 1419,
      "uw": 1420,
      "Pf": 1421,
      "Nb": 1422,
      "2r": 1423,
      "6Y": 1424,
      "Sw": 1425,
      "Nf": 1426,
      "aT": 1427,
      "6K": 1428,
      "RZ": 1429,
      "Qs": 1430,
      "Rj": 1431,
      "cY": 1432,
      "NZ": 1433,
      "1G": 1434,
      "Nv": 1435,
      "1g": 1436,
      "Pm": 1437,
      "Ml": 1438,
      "BT": 1439,
      "u5": 1440,
      "SL": 1441,
      "3x": 1442,
      "PV": 1443,
      "8L": 1444,
      "QD": 1445,
      "cG": 1446,
      "ML": 1447,
      "iT": 1448,
      "9v": 1449,
      "9j": 1450,
      "6m": 1451,
      "CY": 1452,
      "Aw": 1453,
      "cv": 1454,
      "X5": 1455,
      "U5": 1456,
      "cz": 1457,
      "U0": 1458,
      "Rg": 1459,
      "9k": 1460,
      "3V": 1461,
      "6j": 1462,
      "3g": 1463,
      "9Z": 1464,
      "9Y": 1465,
      "Ng": 1466,
      "9y": 1467,
      "9q": 1468,
      "A5": 1469,
      "HD": 1470,
      "uD": 1471,
      "1V": 1472,
      "Cz": 1473,
      "8t": 1474,
      "S0": 1475,
      "A7": 1476,
      "M5": 1477,
      "6q": 1478,
      "6x": 1479,
      "2n": 1480,
      "M4": 1481,
      "9K": 1482,
      "Ah": 1483,
      "Mn": 1484,
      "NV": 1485,
      "2D": 1486,
      "8l": 1487,
      "Od": 1488,
      "JT": 1489,
      "6G": 1490,
      "Ms": 1491,
      "A4": 1492,
      "UD": 1493,
      "Mt": 1494,
      "6y": 1495,
      "8s": 1496,
      "Ol": 1497,
      "Cd": 1498,
      "Sn": 1499,
      "cK": 1500,
      "1l": 1501,
      "pm": 1502,
      "At": 1503,
      "Ow": 1504,
      "6z": 1505,
      "cj": 1506,
      "S7": 1507,
      "UT": 1508,
      "Ev": 1509,
      "6k": 1510,
      "Sd": 1511,
      "Cf": 1512,
      "8w": 1513,
      "▁TIMESTAMP\n);": 1514,
      "cZ": 1515,
      "Oh": 1516,
      "C7": 1517,
      "pk": 1518,
      "cq": 1519,
      "Rl": 1520,
      "cm": 1521,
      "py": 1522,
      "8n": 1523,
      "O0": 1524,
      "Rf": 1525,
      "O7": 1526,
      "Sl": 1527,
      "P7": 1528,
      "1h": 1529,
      "6g": 1530,
      "u4": 1531,
      "cV": 1532,
      "MD": 1533,
      "9x": 1534,
      "pZ": 1535,
      "Nr": 1536,
      "3r": 1537,
      "SD": 1538,
      "000": 1539,
      "cg": 1540,
      "Pg": 1541,
      "ek": 1542,
      "3h": 1543,
      "Sr": 1544,
      "P0": 1545,
      "pY": 1546,
      "Cg": 1547,
      "3w": 1548,
      "C0": 1549,
      "N0": 1550,
      "6v": 1551,
      "Rw": 1552,
      "2t": 1553,
      "Pd": 1554,
      "S4": 1555,
      "8D": 1556,
      "px": 1557,
      "HT": 1558,
      "Nw": 1559,
      "CL": 1560,
      "pj": 1561,
      "Os": 1562,
      "RL": 1563,
      "9g": 1564,
      "9L": 1565,
      "P5": 1566,
      "Pn": 1567,
      "pq": 1568,
      "Pw": 1569,
      "pV": 1570,
      "O4": 1571,
      "S5": 1572,
      "9h": 1573,
      "9m": 1574,
      "eq": 1575,
      "pK": 1576,
      "Rd": 1577,
      "3s": 1578,
      "R0": 1579,
      "Rt": 1580,
      "C5": 1581,
      "NL": 1582,
      "Nd": 1583,
      "oT": 1584,
      "1r": 1585,
      "3n": 1586,
      "OD": 1587,
      "1w": 1588,
      "R7": 1589,
      "pz": 1590,
      "uT": 1591,
      "pv": 1592,
      "N7": 1593,
      "9r": 1594,
      "QT": 1595,
      "Ss": 1596,
      "9V": 1597,
      "Rr": 1598,
      "Cw": 1599,
      "PL": 1600,
      "WT": 1601,
      "6V": 1602,
      "6w": 1603,
      "3l": 1604,
      "Nh": 1605,
      "Nn": 1606,
      "pb": 1607,
      "pw": 1608,
      "Ot": 1609,
      "1t": 1610,
      "pf": 1611,
      "1s": 1612,
      "1L": 1613,
      "Nl": 1614,
      "Rh": 1615,
      "O5": 1616,
      "1n": 1617,
      "2T": 1618,
      "ST": 1619,
      ":00',": 1620,
      "9l": 1621,
      "Ps": 1622,
      "1D": 1623,
      "pG": 1624,
      "N5": 1625,
      "3L": 1626,
      "C4": 1627,
      "Nt": 1628,
      "6l": 1629,
      "Cs": 1630,
      "cL": 1631,
      "Rs": 1632,
      "Ns": 1633,
      "MT": 1634,
      "3D": 1635,
      "6h": 1636,
      "Pt": 1637,
      "Cn": 1638,
      "6n": 1639,
      "▁ASC": 1640,
      "CD": 1641,
      "9w": 1642,
      "e',": 1643,
      "3t": 1644,
      "P4": 1645,
      "6D": 1646,
      "R5": 1647,
      "R4": 1648,
      ".00": 1649,
      "eG": 1650,
      "FE": 1651,
      "BE": 1652,
      "cw": 1653,
      "6L": 1654,
      "cn": 1655,
      "Ct": 1656,
      "Rn": 1657,
      "8T": 1658,
      "N4": 1659,
      "6s": 1660,
      "iE": 1661,
      "9s": 1662,
      "aE": 1663,
      "eY": 1664,
      "6r": 1665,
      "6t": 1666,
      "eV": 1667,
      "9n": 1668,
      "p7": 1669,
      "IE": 1670,
      "p0": 1671,
      "ej": 1672,
      "ez": 1673,
      "eZ": 1674,
      "9t": 1675,
      "cD": 1676,
      "p4": 1677,
      "JE": 1678,
      "cs": 1679,
      "eK": 1680,
      "pL": 1681,
      "3T": 1682,
      "9D": 1683,
      "▁DECIMAL\n);\n\nCREATE": 1684,
      "1T": 1685,
      "p5": 1686,
      "PT": 1687,
      "RT": 1688,
      "▁DECIMAL(5,": 1689,
      "XE": 1690,
      "pD": 1691,
      "HE": 1692,
      "QE": 1693,
      "pn": 1694,
      "eL": 1695,
      "-a": 1696,
      "oE": 1697,
      "2E": 1698,
      "9T": 1699,
      "uE": 1700,
      "@example.com": 1701,
      "6T": 1702,
      "cT": 1703,
      "8E": 1704,
      "eD": 1705,
      "ent": 1706,
      "AE": 1707,
      "pT": 1708,
      "3E": 1709,
      "CE": 1710,
      "PE": 1711,
      "NE": 1712,
      "▁UNIQUE,\n": 1713,
      "1E": 1714,
      "OE": 1715,
      "4567": 1716,
      "▁VARCHAR(20)": 1717,
      "eT": 1718,
      "6E": 1719,
      "cE": 1720,
      "9E": 1721,
      "▁VARCHAR\n);\n\nCREATE": 1722,
      "ith": 1723,
      "pE": 1724,
      "▁TIME,\n": 1725,
      "▁'M": 1726,
      "8,": 1727,
      "-e": 1728,
      "eE": 1729,
      "▁'P": 1730,
      "▁JSONB": 1731,
      "▁'12": 1732,
      "▁'S": 1733,
      "▁'John": 1734,
      "▁'C": 1735,
      "bb": 1736,
      "▁AS": 1737,
      "▁Doe": 1738,
      "0,": 1739,
      "2),\n": 1740,
      "b7": 1741,
      "-42": 1742,
      "89b": 1743,
      "bf": 1744,
      "d4": 1745,
      "▁BYTE": 1746,
      "b5": 1747,
      "b4": 1748,
      "b0": 1749,
      "-4266": 1750,
      "▁FO": 1751,
      "-12d3": 1752,
      "-a456": 1753,
      "lm": 1754,
      "-a456-4266": 1755,
      "74": 1756,
      "io": 1757,
      "-12d3-a456-4266": 1758,
      "-e89b": 1759,
      "d5": 1760,
      ":30": 1761,
      "-e89b-12d3-a456-4266": 1762,
      "df": 1763,
      "sf": 1764,
      "174": 1765,
      "2c": 1766,
      "nv": 1767,
      "7f": 1768,
      "sh": 1769,
      "▁VARCHAR(100)\n);": 1770,
      "d0": 1771,
      "▁BYTEA": 1772,
      "ry": 1773,
      "70": 1774,
      "ty": 1775,
      "ia": 1776,
      "ds": 1777,
      "ULT": 1778,
      "▁'N": 1779,
      "4567-e89b-12d3-a456-4266": 1780,
      "ns": 1781,
      "gm": 1782,
      "40": 1783,
      "Tr": 1784,
      "pe": 1785,
      "tm": 1786,
      "14174": 1787,
      "gy": 1788,
      "4f": 1789,
      "IGN": 1790,
      "ks": 1791,
      "▁0.": 1792,
      "Ty": 1793,
      "FAULT": 1794,
      "ll": 1795,
      "nf": 1796,
      "▁FORE": 1797,
      "d7": 1798,
      "dr": 1799,
      "▁FOREIGN": 1800,
      "ny": 1801,
      "▁DEFAULT": 1802,
      "2e": 1803,
      "KY": 1804,
      "▁'2021": 1805,
      "kz": 1806,
      "kx": 1807,
      "8c": 1808,
      "Vx": 1809,
      "Km": 1810,
      "ky": 1811,
      "jq": 1812,
      "Dm": 1813,
      "8e": 1814,
      "nm": 1815,
      "ss": 1816,
      "KZ": 1817,
      "Dx": 1818,
      "jG": 1819,
      "km": 1820,
      "jy": 1821,
      "Lq": 1822,
      "0x": 1823,
      "▁'j": 1824,
      "Kz": 1825,
      "Dz": 1826,
      "VY": 1827,
      "He": 1828,
      "Kx": 1829,
      "Vm": 1830,
      "1e": 1831,
      "dv": 1832,
      "Kq": 1833,
      "by": 1834,
      "kG": 1835,
      "ae": 1836,
      "36": 1837,
      "jz": 1838,
      "jm": 1839,
      "9,": 1840,
      "Lv": 1841,
      "DG": 1842,
      "Ky": 1843,
      "KG": 1844,
      "Vv": 1845,
      "▁FLOAT\n);": 1846,
      "DZ": 1847,
      "kY": 1848,
      "kq": 1849,
      "DY": 1850,
      "Dv": 1851,
      "05": 1852,
      "Vz": 1853,
      "dm": 1854,
      "kZ": 1855,
      "dy": 1856,
      "4,": 1857,
      "Vy": 1858,
      "wq": 1859,
      "VZ": 1860,
      "Lx": 1861,
      "Kf": 1862,
      "Vq": 1863,
      "LG": 1864,
      "96": 1865,
      "kv": 1866,
      "bx": 1867,
      "Lz": 1868,
      "jY": 1869,
      "jZ": 1870,
      "Ly": 1871,
      "Dy": 1872,
      "3c": 1873,
      "kf": 1874,
      "jx": 1875,
      "LZ": 1876,
      "lZ": 1877,
      "Lm": 1878,
      "bG": 1879,
      "ie": 1880,
      "bv": 1881,
      "1c": 1882,
      "OI": 1883,
      "Kv": 1884,
      "gh": 1885,
      "bq": 1886,
      "Lf": 1887,
      "lY": 1888,
      "LY": 1889,
      "lG": 1890,
      "Vh": 1891,
      "bZ": 1892,
      "Dq": 1893,
      "nq": 1894,
      "gY": 1895,
      "lv": 1896,
      "4567-e89b-12d3-a456-426614174": 1897,
      "wm": 1898,
      "gv": 1899,
      "wZ": 1900,
      "Df": 1901,
      "lq": 1902,
      "nZ": 1903,
      "wz": 1904,
      "wv": 1905,
      "gx": 1906,
      "jf": 1907,
      "lx": 1908,
      "jv": 1909,
      "nx": 1910,
      "1a": 1911,
      "gG": 1912,
      "nY": 1913,
      "nz": 1914,
      "wy": 1915,
      "Vf": 1916,
      "Tv": 1917,
      "▁2)\n);\n\nCREATE": 1918,
      "dq": 1919,
      "wx": 1920,
      "dZ": 1921,
      "bm": 1922,
      "Dh": 1923,
      "bz": 1924,
      "kh": 1925,
      "Tx": 1926,
      "Qu": 1927,
      "Vr": 1928,
      "V5": 1929,
      "dY": 1930,
      "gz": 1931,
      "TY": 1932,
      "jh": 1933,
      "dz": 1934,
      "br": 1935,
      "wf": 1936,
      "lz": 1937,
      "9e": 1938,
      "bY": 1939,
      "Kr": 1940,
      "Tq": 1941,
      "▁ASC;": 1942,
      "nh": 1943,
      "9c": 1944,
      "Tz": 1945,
      "k5": 1946,
      "wr": 1947,
      "D5": 1948,
      "nG": 1949,
      "K5": 1950,
      "gq": 1951,
      "dx": 1952,
      "Tf": 1953,
      "wY": 1954,
      "gf": 1955,
      "Kh": 1956,
      "gZ": 1957,
      "▁fk_": 1958,
      "j5": 1959,
      "wG": 1960,
      "Tm": 1961,
      "7q": 1962,
      "Lh": 1963,
      "FF": 1964,
      "Lr": 1965,
      "TG": 1966,
      "bh": 1967,
      "jr": 1968,
      "lf": 1969,
      "L5": 1970,
      "7m": 1971,
      "wh": 1972,
      "kr": 1973,
      "ls": 1974,
      "7y": 1975,
      "ation": 1976,
      "dh": 1977,
      "7v": 1978,
      "D0": 1979,
      "JJ": 1980,
      "WH": 1981,
      "BX": 1982,
      "7z": 1983,
      "7Y": 1984,
      "7x": 1985,
      "BP": 1986,
      "lh": 1987,
      "l5": 1988,
      "7Z": 1989,
      "tx": 1990,
      "lr": 1991,
      "w5": 1992,
      "7G": 1993,
      "n5": 1994,
      "dG": 1995,
      "iX": 1996,
      "K0": 1997,
      "4y": 1998,
      "7h": 1999,
      "4G": 2000,
      "FP": 2001,
      "4x": 2002,
      "13": 2003,
      "4Y": 2004,
      "tG": 2005,
      "j0": 2006,
      "V0": 2007,
      "4m": 2008,
      "WP": 2009,
      "4q": 2010,
      "WX": 2011,
      "QX": 2012,
      "4v": 2013,
      "ice": 2014,
      "Be": 2015,
      "B6": 2016,
      "tY": 2017,
      "i6": 2018,
      "tZ": 2019,
      "T5": 2020,
      "nr": 2021,
      "L0": 2022,
      "WJ": 2023,
      "8a": 2024,
      "Op": 2025,
      "k0": 2026,
      "QJ": 2027,
      "w0": 2028,
      "tf": 2029,
      "Vs": 2030,
      "g5": 2031,
      "IX": 2032,
      "2a": 2033,
      "4Z": 2034,
      "tz": 2035,
      "js": 2036,
      "BS": 2037,
      "(\n": 2038,
      "iM": 2039,
      "iP": 2040,
      "4z": 2041,
      "-20": 2042,
      "bs": 2043,
      "Eq": 2044,
      "BN": 2045,
      "iH": 2046,
      "g0": 2047,
      "EG": 2048,
      "Ey": 2049,
      "BH": 2050,
      "2P": 2051,
      "BJ": 2052,
      "QH": 2053,
      "BM": 2054,
      "tq": 2055,
      "QP": 2056,
      "UX": 2057,
      "oX": 2058,
      "83": 2059,
      "oP": 2060,
      "iJ": 2061,
      "iC": 2062,
      "Bu": 2063,
      "iN": 2064,
      "2X": 2065,
      "F6": 2066,
      "n0": 2067,
      "l0": 2068,
      "We": 2069,
      "WS": 2070,
      "IH": 2071,
      "IJ": 2072,
      "Ez": 2073,
      "c6": 2074,
      "FC": 2075,
      "W6": 2076,
      "Ds": 2077,
      "OP": 2078,
      "tv": 2079,
      "8P": 2080,
      "2H": 2081,
      "EZ": 2082,
      "iS": 2083,
      "Q6": 2084,
      "QM": 2085,
      "QC": 2086,
      "Re": 2087,
      "FH": 2088,
      "4h": 2089,
      "gs": 2090,
      "o6": 2091,
      "Wp": 2092,
      "FX": 2093,
      "Ks": 2094,
      "WN": 2095,
      "T0": 2096,
      "FM": 2097,
      "-15',": 2098,
      "Ls": 2099,
      "FJ": 2100,
      "Fe": 2101,
      "2N": 2102,
      "I6": 2103,
      "oJ": 2104,
      "▁(10": 2105,
      "WM": 2106,
      "FS": 2107,
      "Ip": 2108,
      "8X": 2109,
      "Qp": 2110,
      "QS": 2111,
      "oH": 2112,
      "Ef": 2113,
      "Fu": 2114,
      "FN": 2115,
      "7r": 2116,
      "Fa": 2117,
      "AC": 2118,
      "AM": 2119,
      "Bp": 2120,
      "iu": 2121,
      "9a": 2122,
      "ws": 2123,
      "OS": 2124,
      "2J": 2125,
      "Eh": 2126,
      "BR": 2127,
      "UH": 2128,
      "1H": 2129,
      "2S": 2130,
      "1P": 2131,
      "oC": 2132,
      "Er": 2133,
      "1X": 2134,
      "▁UUID\n);\n\nCREATE": 2135,
      "8M": 2136,
      "UC": 2137,
      "UJ": 2138,
      "A6": 2139,
      "8C": 2140,
      "QN": 2141,
      "Up": 2142,
      "AS": 2143,
      "t5": 2144,
      "WC": 2145,
      "4r": 2146,
      "2M": 2147,
      "oS": 2148,
      "Iu": 2149,
      "Ts": 2150,
      "8H": 2151,
      "▁DECIMAL\n);": 2152,
      "AH": 2153,
      "oN": 2154,
      "Wu": 2155,
      "Ie": 2156,
      "UN": 2157,
      "U6": 2158,
      "OJ": 2159,
      "E5": 2160,
      "Fp": 2161,
      "8J": 2162,
      "OH": 2163,
      "3P": 2164,
      "AJ": 2165,
      "2C": 2166,
      "OX": 2167,
      "2p": 2168,
      "Bc": 2169,
      "oM": 2170,
      "39": 2171,
      "@example.com',": 2172,
      "8N": 2173,
      "Ap": 2174,
      "Qe": 2175,
      "QR": 2176,
      "Fc": 2177,
      "2u": 2178,
      "8p": 2179,
      "OM": 2180,
      "O6": 2181,
      "WR": 2182,
      "Ic": 2183,
      "IR": 2184,
      "1C": 2185,
      "Ou": 2186,
      "7s": 2187,
      "1N": 2188,
      "Wc": 2189,
      "1J": 2190,
      "iR": 2191,
      "3a": 2192,
      "8S": 2193,
      "Ac": 2194,
      "t0": 2195,
      "Uc": 2196,
      "Qc": 2197,
      "2R": 2198,
      "9X": 2199,
      "Uu": 2200,
      "9P": 2201,
      "FR": 2202,
      "3J": 2203,
      "Au": 2204,
      "Ue": 2205,
      "4s": 2206,
      "E0": 2207,
      "OC": 2208,
      "oR": 2209,
      "1M": 2210,
      "Oe": 2211,
      "9H": 2212,
      "9J": 2213,
      "3X": 2214,
      "▁JSONB,\n": 2215,
      "1S": 2216,
      "8u": 2217,
      "1p": 2218,
      "Oc": 2219,
      "Ae": 2220,
      "▁20": 2221,
      "Ba": 2222,
      "3C": 2223,
      "3M": 2224,
      "1u": 2225,
      "1R": 2226,
      "OR": 2227,
      "3N": 2228,
      "Es": 2229,
      "3H": 2230,
      "9S": 2231,
      "9p": 2232,
      "8R": 2233,
      "aP": 2234,
      "▁'A": 2235,
      "9N": 2236,
      "aX": 2237,
      "3S": 2238,
      "9C": 2239,
      "aN": 2240,
      "9M": 2241,
      "bd": 2242,
      "au": 2243,
      "▁'D": 2244,
      "3u": 2245,
      "aJ": 2246,
      "aH": 2247,
      "9u": 2248,
      "▁Sm": 2249,
      "3p": 2250,
      "▁Doe',": 2251,
      "1;": 2252,
      "i,": 2253,
      "aC": 2254,
      "lg": 2255,
      "3R": 2256,
      "ys": 2257,
      "aS": 2258,
      "doe": 2259,
      "ale": 2260,
      "aM": 2261,
      "o,": 2262,
      "B,": 2263,
      "9R": 2264,
      "f5": 2265,
      "nj": 2266,
      "db": 2267,
      "kg": 2268,
      "Lt": 2269,
      "I,": 2270,
      "F,": 2271,
      "KV": 2272,
      "7b": 2273,
      "kt": 2274,
      "kV": 2275,
      "Q,": 2276,
      "kj": 2277,
      "Lj": 2278,
      "DV": 2279,
      "Lg": 2280,
      "Kg": 2281,
      "U,": 2282,
      "6e": 2283,
      "yz": 2284,
      "IKE": 2285,
      "LV": 2286,
      "YZ": 2287,
      "W,": 2288,
      "al_": 2289,
      "Kt": 2290,
      "3e4567-e89b-12d3-a456-426614174": 2291,
      "Dj": 2292,
      "▁'2023": 2293,
      "lV": 2294,
      "_m": 2295,
      "Dt": 2296,
      "Kj": 2297,
      "▁2,": 2298,
      "aR": 2299,
      "_x": 2300,
      "wg": 2301,
      "f0": 2302,
      "47": 2303,
      "nV": 2304,
      "▁1000": 2305,
      "A,": 2306,
      "lt": 2307,
      "Dg": 2308,
      "wV": 2309,
      "dd": 2310,
      "wt": 2311,
      "vz": 2312,
      "O,": 2313,
      ":00:00": 2314,
      "wj": 2315,
      "_Z": 2316,
      "YG": 2317,
      "vx": 2318,
      "qG": 2319,
      "_G": 2320,
      "_z": 2321,
      "qz": 2322,
      "▁_m": 2323,
      "lj": 2324,
      "▁_Z": 2325,
      "qm": 2326,
      "TV": 2327,
      "qx": 2328,
      "ym": 2329,
      "7g": 2330,
      "vm": 2331,
      "qZ": 2332,
      "6c": 2333,
      "vZ": 2334,
      "▁_G": 2335,
      "ld": 2336,
      "▁_x": 2337,
      "vG": 2338,
      "bt": 2339,
      "▁_z": 2340,
      "rr": 2341,
      "_5": 2342,
      "Tt": 2343,
      "bV": 2344,
      "iQ": 2345,
      "Tj": 2346,
      "Yz": 2347,
      "▁LIKE": 2348,
      "BQ": 2349,
      "Tg": 2350,
      "bj": 2351,
      "D4": 2352,
      "_h": 2353,
      "KK": 2354,
      "bg": 2355,
      "7d": 2356,
      "Yx": 2357,
      "yG": 2358,
      "k4": 2359,
      "TS": 2360,
      "sG": 2361,
      "XX": 2362,
      "qf": 2363,
      "Yh": 2364,
      "yZ": 2365,
      "_f": 2366,
      "yx": 2367,
      "2Q": 2368,
      "Ym": 2369,
      "▁_h": 2370,
      "Fi": 2371,
      "rx": 2372,
      "L4": 2373,
      "oQ": 2374,
      "vh": 2375,
      "IW": 2376,
      "7V": 2377,
      "qh": 2378,
      "MS": 2379,
      "rZ": 2380,
      "kK": 2381,
      "7t": 2382,
      "98": 2383,
      "BB": 2384,
      "sx": 2385,
      "q5": 2386,
      "6,": 2387,
      "▁_5": 2388,
      "7j": 2389,
      "rz": 2390,
      "FW": 2391,
      "2W": 2392,
      "sZ": 2393,
      "MH": 2394,
      "w4": 2395,
      "s',": 2396,
      "sz": 2397,
      "UQ": 2398,
      "rG": 2399,
      "oW": 2400,
      "▁_f": 2401,
      "EV": 2402,
      "rm": 2403,
      "kl": 2404,
      "a,": 2405,
      "dV": 2406,
      "n4": 2407,
      "▁VARCHAR\n);": 2408,
      "dt": 2409,
      "FQ": 2410,
      "Eg": 2411,
      "PP": 2412,
      "dg": 2413,
      "Ej": 2414,
      "q0": 2415,
      "OQ": 2416,
      "UW": 2417,
      "yf": 2418,
      "yh": 2419,
      "DK": 2420,
      "MC": 2421,
      "bl": 2422,
      "iW": 2423,
      "▁DECIMAL(10,2)": 2424,
      "v5": 2425,
      "▁'L": 2426,
      "T4": 2427,
      "MJ": 2428,
      "▁'New": 2429,
      "dj": 2430,
      "BW": 2431,
      "y5": 2432,
      "Et": 2433,
      "▁VARCHAR(20)\n);\n\nCREATE": 2434,
      "MX": 2435,
      "uu": 2436,
      "vf": 2437,
      "LK": 2438,
      "wK": 2439,
      "Y5": 2440,
      "AQ": 2441,
      "AW": 2442,
      "nn": 2443,
      "MN": 2444,
      "Yf": 2445,
      "_0": 2446,
      "rh": 2447,
      "3-": 2448,
      "▁'2022-10": 2449,
      "6C": 2450,
      "6J": 2451,
      "Fo": 2452,
      "▁5;": 2453,
      "Dl": 2454,
      "TK": 2455,
      "kk": 2456,
      "32": 2457,
      "HJ": 2458,
      "HR": 2459,
      "Me": 2460,
      "▁_0": 2461,
      "▁3;": 2462,
      "Mp": 2463,
      "Ll": 2464,
      "uJ": 2465,
      "XP": 2466,
      "NJ": 2467,
      "XJ": 2468,
      "Bi": 2469,
      "6P": 2470,
      "r5": 2471,
      "XS": 2472,
      "Y0": 2473,
      "1W": 2474,
      "s5": 2475,
      "nK": 2476,
      "NP": 2477,
      "1Q": 2478,
      "v0": 2479,
      "Tw": 2480,
      "Te": 2481,
      "F9": 2482,
      "D7": 2483,
      "uP": 2484,
      "XC": 2485,
      "HS": 2486,
      "8W": 2487,
      "bK": 2488,
      "L7": 2489,
      "8Q": 2490,
      "rf": 2491,
      "cP": 2492,
      "E4": 2493,
      "uS": 2494,
      "Lk": 2495,
      "Lw": 2496,
      "▁CA": 2497,
      "Xp": 2498,
      "6S": 2499,
      "Dw": 2500,
      "Dk": 2501,
      "uC": 2502,
      "aa": 2503,
      "B9": 2504,
      ".00,": 2505,
      "cJ": 2506,
      "BU": 2507,
      "oo": 2508,
      "Dn": 2509,
      "RJ": 2510,
      "ith',": 2511,
      "HC": 2512,
      "HP": 2513,
      "Ln": 2514,
      "NS": 2515,
      "zG": 2516,
      "RC": 2517,
      "y0": 2518,
      "Np": 2519,
      "je": 2520,
      "RS": 2521,
      "zm": 2522,
      "Ne": 2523,
      "l4": 2524,
      "I9": 2525,
      "Tk": 2526,
      "RP": 2527,
      "3W": 2528,
      "FU": 2529,
      "zx": 2530,
      "3Q": 2531,
      "bk": 2532,
      "Hp": 2533,
      "lK": 2534,
      "Ii": 2535,
      "r0": 2536,
      "s0": 2537,
      "UM(": 2538,
      "Bo": 2539,
      "IA": 2540,
      "BA": 2541,
      "O9": 2542,
      "Dd": 2543,
      "▁GRO": 2544,
      "Zm": 2545,
      "cC": 2546,
      "IU": 2547,
      "Xe": 2548,
      "tt": 2549,
      "Ld": 2550,
      "cS": 2551,
      "▁JSON,\n": 2552,
      "▁GROUP": 2553,
      "bw": 2554,
      "Ia": 2555,
      "Zx": 2556,
      "6p": 2557,
      "hm": 2558,
      "Rp": 2559,
      "▁St": 2560,
      "li": 2561,
      "Io": 2562,
      "ZG": 2563,
      "38": 2564,
      ":00:00',": 2565,
      "▁tot": 2566,
      "Tn": 2567,
      "EK": 2568,
      "▁_Y": 2569,
      "zf": 2570,
      "0.": 2571,
      "bn": 2572,
      "▁(\n_": 2573,
      "▁j_": 2574,
      "▁0_": 2575,
      "7K": 2576,
      "2A": 2577,
      "ci": 2578,
      "qq": 2579,
      "▁1_": 2580,
      "ity": 2581,
      "jV": 2582,
      "▁E_": 2583,
      "▁W_": 2584,
      "vY": 2585,
      "\":": 2586,
      "▁e_": 2587,
      "▁D_": 2588,
      "▁O_": 2589,
      "▁5_": 2590,
      "En": 2591,
      "hx": 2592,
      "2)": 2593,
      "▁y_": 2594,
      "▁m_": 2595,
      "▁p_": 2596,
      "▁l_": 2597,
      "ain": 2598,
      "cp": 2599,
      "lw": 2600,
      "hG": 2601,
      "▁A_": 2602,
      "▁v_": 2603,
      "5f": 2604,
      "▁6_": 2605,
      "▁9_": 2606,
      "▁H_": 2607,
      "▁7_": 2608,
      "▁q_": 2609,
      "▁Z_": 2610,
      "▁x_": 2611,
      "2U": 2612,
      "▁08": 2613,
      "▁i_": 2614,
      "▁I_": 2615,
      "gV": 2616,
      "▁k_": 2617,
      "▁F_": 2618,
      "lk": 2619,
      "▁o_": 2620,
      "Mu": 2621,
      "▁S_": 2622,
      "OA": 2623,
      "▁s_": 2624,
      "Oi": 2625,
      "▁h_": 2626,
      "▁r_": 2627,
      "Oa": 2628,
      "▁R_": 2629,
      "▁z_": 2630,
      "▁K_": 2631,
      "▁f_": 2632,
      "▁g_": 2633,
      "vq": 2634,
      "▁U_": 2635,
      "vy": 2636,
      "▁b_": 2637,
      "▁'R": 2638,
      "▁Y_": 2639,
      "▁Q_": 2640,
      "▁n_": 2641,
      "▁c_": 2642,
      "▁4_": 2643,
      "▁a_": 2644,
      "▁M_": 2645,
      "▁J_": 2646,
      "▁L_": 2647,
      "▁_q": 2648,
      "▁t_": 2649,
      "rs": 2650,
      "▁X_": 2651,
      "▁P_": 2652,
      "▁B_": 2653,
      "▁G_": 2654,
      "2i": 2655,
      "▁3_": 2656,
      "Ek": 2657,
      "T7": 2658,
      "▁T_": 2659,
      "▁8_": 2660,
      "jt": 2661,
      "▁2_": 2662,
      "6N": 2663,
      "2o": 2664,
      "▁u_": 2665,
      "▁d_": 2666,
      "▁N_": 2667,
      "Zf": 2668,
      "dK": 2669,
      "B8": 2670,
      "BF": 2671,
      "1A": 2672,
      "GG": 2673,
      "DD": 2674,
      "▁V_": 2675,
      "gt": 2676,
      "▁C_": 2677,
      "▁_y": 2678,
      "6H": 2679,
      "6X": 2680,
      "3U": 2681,
      "▁total_": 2682,
      "▁w_": 2683,
      "9W": 2684,
      "1i": 2685,
      "z5": 2686,
      "LL": 2687,
      "ADE": 2688,
      "I8": 2689,
      "Oo": 2690,
      "CP": 2691,
      "4V": 2692,
      "Ew": 2693,
      "▁INTEGER,\n": 2694,
      "NN": 2695,
      "IF": 2696,
      "ee": 2697,
      "rt": 2698,
      "Td": 2699,
      "1U": 2700,
      "ln": 2701,
      "zZ": 2702,
      "4t": 2703,
      "l7": 2704,
      "9Q": 2705,
      "jg": 2706,
      "vs": 2707,
      "zh": 2708,
      "-05": 2709,
      "6u": 2710,
      "MR": 2711,
      "Db": 2712,
      "Lb": 2713,
      "z0": 2714,
      "qY": 2715,
      "aQ": 2716,
      "CJ": 2717,
      "1o": 2718,
      "VV": 2719,
      "mm": 2720,
      "HX": 2721,
      "ai": 2722,
      "E7": 2723,
      "▁_s": 2724,
      "Mc": 2725,
      "xx": 2726,
      "4g": 2727,
      "rY": 2728,
      "wk": 2729,
      "▁'2022-01-01';": 2730,
      "AA": 2731,
      "SP": 2732,
      "UU": 2733,
      "jj": 2734,
      "aW": 2735,
      "Tb": 2736,
      "3i": 2737,
      "vv": 2738,
      "Z5": 2739,
      "yy": 2740,
      "SCADE": 2741,
      "▁CASCADE": 2742,
      "2F": 2743,
      "Hu": 2744,
      "NX": 2745,
      "▁'Al": 2746,
      "IB": 2747,
      "cu": 2748,
      "pP": 2749,
      "rq": 2750,
      "hf": 2751,
      "Vt": 2752,
      "▁'F": 2753,
      "0f": 2754,
      "nk": 2755,
      "M,": 2756,
      "O8": 2757,
      "Gm": 2758,
      "h5": 2759,
      "w7": 2760,
      "SJ": 2761,
      "Gx": 2762,
      "yY": 2763,
      "gg": 2764,
      "3A": 2765,
      "Tl": 2766,
      "Ru": 2767,
      "a8": 2768,
      "3o": 2769,
      "F8": 2770,
      "QW": 2771,
      "▁'G": 2772,
      "yq": 2773,
      "CC": 2774,
      "RX": 2775,
      "Sp": 2776,
      "2B": 2777,
      "cX": 2778,
      "▁STRING\n);\n\nCREATE": 2779,
      "te": 2780,
      "jK": 2781,
      "HN": 2782,
      "DL": 2783,
      "7k": 2784,
      "JP": 2785,
      "ZZ": 2786,
      "▁_v": 2787,
      "Ed": 2788,
      "NT(": 2789,
      "zz": 2790,
      "RN": 2791,
      "YY": 2792,
      "cN": 2793,
      "Se": 2794,
      "h0": 2795,
      "x5": 2796,
      "4d": 2797,
      "▁VARCHAR(10)": 2798,
      "ii": 2799,
      "Gf": 2800,
      "G5": 2801,
      "lb": 2802,
      "Cp": 2803,
      "sq": 2804,
      "Z0": 2805,
      "5.": 2806,
      "n7": 2807,
      "1F": 2808,
      "M6": 2809,
      "1B": 2810,
      "QQ": 2811,
      "nw": 2812,
      "TL": 2813,
      "4K": 2814,
      "rv": 2815,
      "WW": 2816,
      "xm": 2817,
      "UA": 2818,
      ":30:00": 2819,
      "sY": 2820,
      "OF": 2821,
      "HH": 2822,
      "-31": 2823,
      "I3": 2824,
      "Ce": 2825,
      "uX": 2826,
      "Jp": 2827,
      "9i": 2828,
      "ne": 2829,
      "Vg": 2830,
      "MM": 2831,
      "OB": 2832,
      "4j": 2833,
      "hh": 2834,
      "dk": 2835,
      "4b": 2836,
      "Je": 2837,
      "8o": 2838,
      "Ui": 2839,
      "sy": 2840,
      "R,": 2841,
      "Eb": 2842,
      "RH": 2843,
      "8A": 2844,
      "ork": 2845,
      "▁2;": 2846,
      "DT": 2847,
      "cH": 2848,
      "0m": 2849,
      "9o": 2850,
      "uN": 2851,
      "4k": 2852,
      "SS": 2853,
      "ao": 2854,
      "fm": 2855,
      "3F": 2856,
      "rg": 2857,
      "rodu": 2858,
      "▁_t": 2859,
      "dw": 2860,
      "Uo": 2861,
      "El": 2862,
      "9A": 2863,
      "zY": 2864,
      "▁12": 2865,
      "hZ": 2866,
      "▁>=": 2867,
      "XN": 2868,
      "JS": 2869,
      "LD": 2870,
      "8i": 2871,
      "GZ": 2872,
      "Pe": 2873,
      "VK": 2874,
      "FB": 2875,
      "CS": 2876,
      "WQ": 2877,
      "7w": 2878,
      "G0": 2879,
      "c,": 2880,
      "▁EN": 2881,
      "qy": 2882,
      "fx": 2883,
      "Vj": 2884,
      "93": 2885,
      "gK": 2886,
      "3e4567-e89b-12d3-a456-426614174000": 2887,
      "MQ": 2888,
      "qv": 2889,
      "kw": 2890,
      "aA": 2891,
      "dn": 2892,
      "LT": 2893,
      "qs": 2894,
      "R6": 2895,
      "Pp": 2896,
      "▁_r": 2897,
      "uH": 2898,
      "PJ": 2899,
      "iA": 2900,
      "x0": 2901,
      "ED": 2902,
      "CX": 2903,
      "IO": 2904,
      "hz": 2905,
      "9U": 2906,
      "4w": 2907,
      "3B": 2908,
      "co": 2909,
      "gj": 2910,
      "CN": 2911,
      "▁_K": 2912,
      "▁DECIMAL(5,2),\n": 2913,
      "u,": 2914,
      "hy": 2915,
      "MW": 2916,
      "▁BET": 2917,
      "2O": 2918,
      "8U": 2919,
      "nb": 2920,
      "WEEN": 2921,
      "▁_V": 2922,
      "TD": 2923,
      "▁BETWEEN": 2924,
      "JX": 2925,
      "k7": 2926,
      "Yy": 2927,
      "II": 2928,
      "xf": 2929,
      "H,": 2930,
      "PS": 2931,
      "sv": 2932,
      "5m": 2933,
      "nl": 2934,
      "EL": 2935,
      "dl": 2936,
      "▁\"": 2937,
      "Zz": 2938,
      "▁'2022-09": 2939,
      "8B": 2940,
      "qt": 2941,
      "Rc": 2942,
      "▁_g": 2943,
      "▁_j": 2944,
      "9B": 2945,
      "-7": 2946,
      "xG": 2947,
      "kb": 2948,
      "aU": 2949,
      "8F": 2950,
      "▁COU": 2951,
      "u6": 2952,
      "uc": 2953,
      "9F": 2954,
      "vt": 2955,
      "Ao": 2956,
      "1O": 2957,
      "wb": 2958,
      "▁'%": 2959,
      "H6": 2960,
      "roduct": 2961,
      "TT": 2962,
      "de": 2963,
      "a3": 2964,
      "aB": 2965,
      "JN": 2966,
      "Gz": 2967,
      "RQ": 2968,
      "ane": 2969,
      "4n": 2970,
      "EE": 2971,
      "yt": 2972,
      "SX": 2973,
      "▁'john": 2974,
      "▁BYTEA,\n": 2975,
      "ZY": 2976,
      "PC": 2977,
      "lD": 2978,
      "rK": 2979,
      "hY": 2980,
      "JC": 2981,
      "pX": 2982,
      "m5": 2983,
      "PX": 2984,
      "kn": 2985,
      "81": 2986,
      "▁LIM": 2987,
      "Mo": 2988,
      "rV": 2989,
      "mx": 2990,
      "▁Smith',": 2991,
      "▁A',": 2992,
      "▁COUNT(": 2993,
      "PN": 2994,
      "yv": 2995,
      "aF": 2996,
      "sw": 2997,
      "▁LIMIT": 2998,
      "GY": 2999,
      "▁'B": 3000,
      "rj": 3001,
      "▁(3,": 3002,
      "82": 3003,
      "Hc": 3004,
      "7n": 3005,
      "Wo": 3006,
      "O3": 3007,
      "91": 3008,
      "92": 3009,
      "qg": 3010,
      "UF": 3011,
      "▁'2022-01-01'": 3012,
      "SN": 3013,
      "6Q": 3014,
      "UB": 3015,
      "Ai": 3016,
      "RR": 3017,
      "mf": 3018,
      "E,": 3019,
      "qV": 3020,
      "Kw": 3021,
      "▁TIMESTAMPTZ": 3022,
      "Wi": 3023,
      "123": 3024,
      "pJ": 3025,
      "lL": 3026,
      "end": 3027,
      "a1": 3028,
      "dD": 3029,
      "vg": 3030,
      "m0": 3031,
      "Gh": 3032,
      "zy": 3033,
      "uQ": 3034,
      "jw": 3035,
      "I1": 3036,
      "xZ": 3037,
      "I2": 3038,
      "pS": 3039,
      "vV": 3040,
      "fZ": 3041,
      "WA": 3042,
      "X,": 3043,
      "sV": 3044,
      "P,": 3045,
      "lT": 3046,
      "be": 3047,
      "mZ": 3048,
      "pC": 3049,
      "▁tr": 3050,
      "Kk": 3051,
      "RM": 3052,
      "oi": 3053,
      "5x": 3054,
      "HQ": 3055,
      "HM": 3056,
      "qj": 3057,
      "sg": 3058,
      "pN": 3059,
      "K7": 3060,
      "dL": 3061,
      "▁101,": 3062,
      "qr": 3063,
      "lE": 3064,
      "e,": 3065,
      "TIM": 3066,
      "zv": 3067,
      "cM": 3068,
      "bL": 3069,
      "oA": 3070,
      "p,": 3071,
      "pa": 3072,
      "nL": 3073,
      "▁2)\n);": 3074,
      "cQ": 3075,
      "4D": 3076,
      "yg": 3077,
      "fG": 3078,
      "kD": 3079,
      "bD": 3080,
      "J6": 3081,
      "C,": 3082,
      "uM": 3083,
      "4L": 3084,
      "sj": 3085,
      "I__": 3086,
      "nD": 3087,
      "N,": 3088,
      "B3": 3089,
      "mG": 3090,
      "7D": 3091,
      "J,": 3092,
      "uR": 3093,
      "▁_w": 3094,
      "F3": 3095,
      "X6": 3096,
      "U9": 3097,
      "zt": 3098,
      "56": 3099,
      "qK": 3100,
      "a2": 3101,
      "U3": 3102,
      "O2": 3103,
      "Vw": 3104,
      "5G": 3105,
      "Zh": 3106,
      "sr": 3107,
      "▁150": 3108,
      "HW": 3109,
      "vr": 3110,
      "vj": 3111,
      "dE": 3112,
      "iB": 3113,
      "xY": 3114,
      "C6": 3115,
      "890": 3116,
      "cR": 3117,
      "UM('": 3118,
      "▁ENUM('": 3119,
      "U8": 3120,
      "O1": 3121,
      "S,": 3122,
      "P6": 3123,
      "c9": 3124,
      "fY": 3125,
      "7L": 3126,
      "tw": 3127,
      "kL": 3128,
      "xh": 3129,
      "tg": 3130,
      "4l": 3131,
      "cW": 3132,
      "7l": 3133,
      "oB": 3134,
      "uW": 3135,
      "5Z": 3136,
      "dT": 3137,
      "AB": 3138,
      "AF": 3139,
      "mY": 3140,
      "4e": 3141,
      "p6": 3142,
      "vK": 3143,
      "ess": 3144,
      "mz": 3145,
      "▁_k": 3146,
      "JH": 3147,
      "bE": 3148,
      "xz": 3149,
      "Ua": 3150,
      "RW": 3151,
      "O__": 3152,
      "iF": 3153,
      "▁'H": 3154,
      "bT": 3155,
      "7e": 3156,
      "tV": 3157,
      "XQ": 3158,
      "4T": 3159,
      "N6": 3160,
      "S6": 3161,
      "sK": 3162,
      "mh": 3163,
      "0Y": 3164,
      "0Z": 3165,
      "0G": 3166,
      "7,": 3167,
      "nT": 3168,
      "yr": 3169,
      "yV": 3170,
      "yj": 3171,
      "4E": 3172,
      "fz": 3173,
      "XH": 3174,
      "pH": 3175,
      "7T": 3176,
      "Mi": 3177,
      "oF": 3178,
      "JQ": 3179,
      "0h": 3180,
      "fh": 3181,
      "qw": 3182,
      "gw": 3183,
      "c8": 3184,
      "Su": 3185,
      "jk": 3186,
      "PH": 3187,
      "5z": 3188,
      "A9": 3189,
      "1),\n": 3190,
      "7E": 3191,
      "Cu": 3192,
      "5Y": 3193,
      "PQ": 3194,
      "WB": 3195,
      "nE": 3196,
      "b6": 3197,
      "Vk": 3198,
      "yK": 3199,
      "Xu": 3200,
      "Ju": 3201,
      "SH": 3202,
      "XM": 3203,
      "8O": 3204,
      "NH": 3205,
      "o9": 3206,
      "CQ": 3207,
      "▁123": 3208,
      "Pu": 3209,
      "gk": 3210,
      "tj": 3211,
      "pQ": 3212,
      "SQ": 3213,
      "▁30": 3214,
      "est": 3215,
      "oU": 3216,
      "XR": 3217,
      "1I": 3218,
      "1__": 3219,
      "PM": 3220,
      "i9": 3221,
      "NQ": 3222,
      "qk": 3223,
      "ge": 3224,
      "2I": 3225,
      "pu": 3226,
      "AU": 3227,
      "JM": 3228,
      "0z": 3229,
      ".doe": 3230,
      "2__": 3231,
      "o3": 3232,
      "5h": 3233,
      "Nu": 3234,
      "c3": 3235,
      "CM": 3236,
      "▁KEY,\n_": 3237,
      "iU": 3238,
      "fr": 3239,
      "tK": 3240,
      "i3": 3241,
      "sk": 3242,
      "XW": 3243,
      "wD": 3244,
      "i8": 3245,
      "FO": 3246,
      "69": 3247,
      "o8": 3248,
      "oa": 3249,
      "A3": 3250,
      "▁_n": 3251,
      "PR": 3252,
      "▁'E": 3253,
      "-01-01": 3254,
      "A8": 3255,
      "Gv": 3256,
      "▁'2022-02": 3257,
      "▁_7": 3258,
      "yw": 3259,
      "act": 3260,
      "SM": 3261,
      "Aa": 3262,
      "▁_4": 3263,
      "PW": 3264,
      "Kn": 3265,
      "Cc": 3266,
      "De": 3267,
      "Zv": 3268,
      "▁_l": 3269,
      "Le": 3270,
      "d6": 3271,
      "gl": 3272,
      "▁GE": 3273,
      "BO": 3274,
      "rw": 3275,
      "CR": 3276,
      "TI": 3277,
      "JR": 3278,
      "▁_b": 3279,
      "NR": 3280,
      "NW": 3281,
      "Yv": 3282,
      "1',": 3283,
      "UO": 3284,
      "jn": 3285,
      "fv": 3286,
      "Zy": 3287,
      "NM": 3288,
      "▁York": 3289,
      "Kl": 3290,
      "zq": 3291,
      "Zq": 3292,
      "SW": 3293,
      "JW": 3294,
      "pW": 3295,
      "FI": 3296,
      "xv": 3297,
      "Yq": 3298,
      "UI": 3299,
      "pM": 3300,
      "Xc": 3301,
      "Jc": 3302,
      "Nc": 3303,
      "Sc": 3304,
      "Vn": 3305,
      "rk": 3306,
      "CW": 3307,
      "aO": 3308,
      "Kb": 3309,
      "mv": 3310,
      "Ys": 3311,
      "▁_D": 3312,
      "VD": 3313,
      "▁BOOLEAN\n);\n\nCREATE": 3314,
      "SR": 3315,
      "6W": 3316,
      "9O": 3317,
      "gn": 3318,
      "Zs": 3319,
      "jb": 3320,
      "aI": 3321,
      "▁_L": 3322,
      "KL": 3323,
      "Pc": 3324,
      "ms": 3325,
      "Ee": 3326,
      "Gy": 3327,
      "zs": 3328,
      "V7": 3329,
      "▁'123e4567-e89b-12d3-a456-426614174000": 3330,
      "F__": 3331,
      "xy": 3332,
      "KD": 3333,
      "▁200": 3334,
      "jl": 3335,
      "jD": 3336,
      "Zt": 3337,
      "Yt": 3338,
      "j7": 3339,
      "BI": 3340,
      "6R": 3341,
      "kT": 3342,
      "xt": 3343,
      "▁VARCHAR(200": 3344,
      "fy": 3345,
      "wl": 3346,
      "wL": 3347,
      "-b": 3348,
      "V4": 3349,
      "Vb": 3350,
      "rd": 3351,
      "my": 3352,
      "Vl": 3353,
      "pR": 3354,
      "Gt": 3355,
      "8__": 3356,
      "-12-31": 3357,
      "oO": 3358,
      ":45": 3359,
      "hq": 3360,
      "ft": 3361,
      "xs": 3362,
      "gb": 3363,
      "jL": 3364,
      "Gq": 3365,
      "8I": 3366,
      "hv": 3367,
      "xq": 3368,
      "6M": 3369,
      "a__": 3370,
      "3O": 3371,
      "U__": 3372,
      "g7": 3373,
      "hs": 3374,
      "▁_d": 3375,
      "Gs": 3376,
      "▁_T": 3377,
      "AO": 3378,
      "pc": 3379,
      "kE": 3380,
      "g4": 3381,
      "kd": 3382,
      "B__": 3383,
      ":30:00',": 3384,
      ".50": 3385,
      "j4": 3386,
      "f7": 3387,
      "2022": 3388,
      "B2": 3389,
      "mq": 3390,
      "K4": 3391,
      "9I": 3392,
      "F2": 3393,
      "gL": 3394,
      "9__": 3395,
      "B1": 3396,
      "▁_E": 3397,
      "F1": 3398,
      "mt": 3399,
      "3__": 3400,
      "VL": 3401,
      "Gr": 3402,
      "zr": 3403,
      "wd": 3404,
      "gd": 3405,
      "3)": 3406,
      "3I": 3407,
      "A1": 3408,
      "KT": 3409,
      "gD": 3410,
      "fq": 3411,
      "Yr": 3412,
      "AI": 3413,
      "U1": 3414,
      "fs": 3415,
      "▁(101,": 3416,
      "iI": 3417,
      "▁KEY(": 3418,
      "5v": 3419,
      "i1": 3420,
      "hr": 3421,
      "Kd": 3422,
      "wE": 3423,
      "i__": 3424,
      "iO": 3425,
      "-30": 3426,
      "A__": 3427,
      "wT": 3428,
      "▁'john.doe": 3429,
      "▁UUID\n);": 3430,
      "68": 3431,
      "Vd": 3432,
      "oI": 3433,
      "0v": 3434,
      "we": 3435,
      "0y": 3436,
      "o1": 3437,
      "VT": 3438,
      "o__": 3439,
      "5y": 3440,
      "Zr": 3441,
      "ers": 3442,
      "5q": 3443,
      "-20',": 3444,
      "jd": 3445,
      "▁for": 3446,
      "▁3,": 3447,
      "0q": 3448,
      "nc": 3449,
      "▁VARCHAR(10)\n);\n\nCREATE": 3450,
      "U2": 3451,
      "▁'2022-03": 3452,
      "ke": 3453,
      "▁'2022-01-15": 3454,
      "5t": 3455,
      "KE": 3456,
      "VE": 3457,
      "xr": 3458,
      "5s": 3459,
      "▁1);": 3460,
      "gT": 3461,
      "jE": 3462,
      "▁15": 3463,
      "mr": 3464,
      "A2": 3465,
      "f4": 3466,
      "▁'T": 3467,
      "jT": 3468,
      "▁10;": 3469,
      "0t": 3470,
      "5r": 3471,
      "i2": 3472,
      "er',": 3473,
      "ive": 3474,
      "gE": 3475,
      "0s": 3476,
      "o2": 3477,
      "fd": 3478,
      "fb": 3479,
      "QB": 3480,
      "6a": 3481,
      "ount": 3482,
      "▁5000": 3483,
      "63": 3484,
      "fl": 3485,
      "01;": 3486,
      "▁09": 3487,
      "GL": 3488,
      "ing',": 3489,
      "ca": 3490,
      "MB": 3491,
      "fk": 3492,
      "v4": 3493,
      "-5": 3494,
      "W9": 3495,
      "Po": 3496,
      "Ke": 3497,
      "ui": 3498,
      "X9": 3499,
      "zj": 3500,
      "YV": 3501,
      "QF": 3502,
      "mg": 3503,
      "MF": 3504,
      "u9": 3505,
      "JB": 3506,
      "0r": 3507,
      "sl": 3508,
      "Pi": 3509,
      "zg": 3510,
      "PB": 3511,
      "Qi": 3512,
      "Q9": 3513,
      "JF": 3514,
      "Ci": 3515,
      "XB": 3516,
      "GV": 3517,
      "TH": 3518,
      "▁_e": 3519,
      "zV": 3520,
      "WF": 3521,
      "-11": 3522,
      "XF": 3523,
      "Xi": 3524,
      "W8": 3525,
      "M9": 3526,
      "zk": 3527,
      "q4": 3528,
      "vk": 3529,
      "▁100;": 3530,
      "Zg": 3531,
      "q7": 3532,
      "hw": 3533,
      "n,": 3534,
      "ql": 3535,
      "Yw": 3536,
      "P9": 3537,
      "uF": 3538,
      "c2": 3539,
      "CF": 3540,
      "po": 3541,
      "xV": 3542,
      "1)": 3543,
      "fe": 3544,
      "6F": 3545,
      "YK": 3546,
      "HF": 3547,
      "yl": 3548,
      "MU": 3549,
      "CA": 3550,
      "ate": 3551,
      "Q8": 3552,
      "CB": 3553,
      "Yj": 3554,
      "hj": 3555,
      "zK": 3556,
      "Yg": 3557,
      "pi": 3558,
      "Gk": 3559,
      "ZK": 3560,
      "C9": 3561,
      "cB": 3562,
      "Zj": 3563,
      "yk": 3564,
      "cF": 3565,
      "Zw": 3566,
      "QA": 3567,
      "XU": 3568,
      "ZV": 3569,
      "Ji": 3570,
      "N9": 3571,
      "G7": 3572,
      "07": 3573,
      "GK": 3574,
      "HB": 3575,
      "ale',": 3576,
      "6i": 3577,
      "SA": 3578,
      "vw": 3579,
      "Yk": 3580,
      "qL": 3581,
      "Qo": 3582,
      "c1": 3583,
      "▁'2022-06": 3584,
      ".00);": 3585,
      "57": 3586,
      "PF": 3587,
      "hb": 3588,
      "62": 3589,
      "XA": 3590,
      "WU": 3591,
      "PU": 3592,
      "zw": 3593,
      "QU": 3594,
      "xk": 3595,
      "Gg": 3596,
      "yb": 3597,
      "hV": 3598,
      "mV": 3599,
      "Zk": 3600,
      "RB": 3601,
      "qd": 3602,
      "hg": 3603,
      "Si": 3604,
      "5d": 3605,
      "J9": 3606,
      "v7": 3607,
      "Co": 3608,
      "MO": 3609,
      "04": 3610,
      "61": 3611,
      "p9": 3612,
      "▁500": 3613,
      "H9": 3614,
      "xg": 3615,
      "Qa": 3616,
      "6B": 3617,
      "qn": 3618,
      "SF": 3619,
      "D,": 3620,
      "y7": 3621,
      "tn": 3622,
      "54": 3623,
      "Hi": 3624,
      "NF": 3625,
      "Q3": 3626,
      "zl": 3627,
      "JA": 3628,
      "PA": 3629,
      "Gj": 3630,
      "Ma": 3631,
      "S9": 3632,
      "Xo": 3633,
      "pF": 3634,
      "MA": 3635,
      "qb": 3636,
      "qu": 3637,
      "rn": 3638,
      "vb": 3639,
      "▁2);": 3640,
      "R9": 3641,
      "Gw": 3642,
      "y4": 3643,
      "yn": 3644,
      "zb": 3645,
      "sn": 3646,
      "{\"": 3647,
      "C8": 3648,
      "s7": 3649,
      "z7": 3650,
      "Ri": 3651,
      "6A": 3652,
      "yL": 3653,
      "NB": 3654,
      "fj": 3655,
      "W__": 3656,
      "vn": 3657,
      "h7": 3658,
      "zn": 3659,
      "fg": 3660,
      "J3": 3661,
      "NU": 3662,
      "qD": 3663,
      "Wa": 3664,
      "JU": 3665,
      "W3": 3666,
      "XO": 3667,
      "Jo": 3668,
      "xj": 3669,
      "tl": 3670,
      "xK": 3671,
      "RF": 3672,
      "pB": 3673,
      "Ho": 3674,
      "fV": 3675,
      "T,": 3676,
      "r7": 3677,
      "QO": 3678,
      "X3": 3679,
      "zD": 3680,
      "son": 3681,
      "fK": 3682,
      "5b": 3683,
      "J8": 3684,
      "ve": 3685,
      "HU": 3686,
      "No": 3687,
      "H8": 3688,
      "sb": 3689,
      "Yn": 3690,
      "hk": 3691,
      "P8": 3692,
      "uB": 3693,
      "Y7": 3694,
      "vl": 3695,
      "CU": 3696,
      "X8": 3697,
      "vd": 3698,
      "Ha": 3699,
      "sd": 3700,
      "RA": 3701,
      "hK": 3702,
      "xl": 3703,
      "yD": 3704,
      "Yb": 3705,
      "Xa": 3706,
      "Gl": 3707,
      "Ro": 3708,
      "yd": 3709,
      "vL": 3710,
      "Ni": 3711,
      "Q__": 3712,
      "uo": 3713,
      "S8": 3714,
      "mK": 3715,
      "rb": 3716,
      "Y4": 3717,
      "mj": 3718,
      "t7": 3719,
      "pU": 3720,
      "vD": 3721,
      "sD": 3722,
      "ua": 3723,
      "SB": 3724,
      "x7": 3725,
      "sL": 3726,
      "0V": 3727,
      "0b": 3728,
      "z4": 3729,
      "M8": 3730,
      "P3": 3731,
      "x4": 3732,
      "u8": 3733,
      "s4": 3734,
      "uA": 3735,
      "NA": 3736,
      "YL": 3737,
      "SU": 3738,
      "tk": 3739,
      "uU": 3740,
      "0j": 3741,
      "xw": 3742,
      "75,": 3743,
      "H3": 3744,
      "Ja": 3745,
      "QI": 3746,
      "ZL": 3747,
      "So": 3748,
      "M3": 3749,
      "WO": 3750,
      "6U": 3751,
      "YD": 3752,
      "mw": 3753,
      "td": 3754,
      "Yl": 3755,
      "Ge": 3756,
      "CO": 3757,
      "G4": 3758,
      "N8": 3759,
      "r4": 3760,
      "qE": 3761,
      "Z7": 3762,
      "hl": 3763,
      "5K": 3764,
      "Pa": 3765,
      "M__": 3766,
      "zL": 3767,
      "R8": 3768,
      "PO": 3769,
      "▁'2022-08": 3770,
      "rl": 3771,
      "rL": 3772,
      "zd": 3773,
      "tL": 3774,
      "Ra": 3775,
      "tb": 3776,
      "N3": 3777,
      "HO": 3778,
      "Z4": 3779,
      "cU": 3780,
      "mk": 3781,
      "Zl": 3782,
      "tD": 3783,
      "xb": 3784,
      "JO": 3785,
      "XI": 3786,
      "C3": 3787,
      "5j": 3788,
      "Zb": 3789,
      "p8": 3790,
      "5V": 3791,
      "p3": 3792,
      "GD": 3793,
      "uO": 3794,
      "ail": 3795,
      "qT": 3796,
      "HA": 3797,
      "u3": 3798,
      "W1": 3799,
      "WI": 3800,
      "▁'2022-05": 3801,
      "0d": 3802,
      "t4": 3803,
      "fn": 3804,
      "%'": 3805,
      "Ca": 3806,
      "ml": 3807,
      "Gb": 3808,
      "hD": 3809,
      "rD": 3810,
      "cA": 3811,
      "5g": 3812,
      "▁'123e4567-e89b-12d3-a456-426614174000';": 3813,
      "m7": 3814,
      "mL": 3815,
      "S3": 3816,
      "fw": 3817,
      "▁'123": 3818,
      "Zn": 3819,
      "*)": 3820,
      "5k": 3821,
      "pO": 3822,
      "mn": 3823,
      "0g": 3824,
      "0K": 3825,
      "MI": 3826,
      "pA": 3827,
      "vT": 3828,
      "xD": 3829,
      "YE": 3830,
      "fL": 3831,
      "0k": 3832,
      "JI": 3833,
      "xn": 3834,
      "hL": 3835,
      "ZD": 3836,
      "sE": 3837,
      "h4": 3838,
      "Sa": 3839,
      "hn": 3840,
      "X__": 3841,
      "HI": 3842,
      "xL": 3843,
      "Q1": 3844,
      "▁STRING\n);": 3845,
      "CI": 3846,
      "NO": 3847,
      "6o": 3848,
      "fD": 3849,
      "mb": 3850,
      "Yd": 3851,
      "6O": 3852,
      "u__": 3853,
      "Gn": 3854,
      "R3": 3855,
      "W2": 3856,
      "▁101;": 3857,
      "Gd": 3858,
      "Q2": 3859,
      "▁DOU": 3860,
      "sT": 3861,
      "yE": 3862,
      "Zd": 3863,
      "▁in": 3864,
      "SO": 3865,
      "6__": 3866,
      "cO": 3867,
      "PI": 3868,
      "mD": 3869,
      "▁DOUBLE": 3870,
      "▁the": 3871,
      "M2": 3872,
      "vE": 3873,
      "cI": 3874,
      "M1": 3875,
      "▁TRUE": 3876,
      "H__": 3877,
      "C__": 3878,
      "m4": 3879,
      "Na": 3880,
      "RI": 3881,
      "._": 3882,
      "pI": 3883,
      "hd": 3884,
      "ZT": 3885,
      "X1": 3886,
      "▁of": 3887,
      "0l": 3888,
      "zE": 3889,
      "uI": 3890,
      "J__": 3891,
      "S__": 3892,
      "xd": 3893,
      "5w": 3894,
      "5l": 3895,
      "N__": 3896,
      "GT": 3897,
      "0w": 3898,
      "NI": 3899,
      "▁COUNT(*)": 3900,
      "0D": 3901,
      "P__": 3902,
      "yT": 3903,
      "p__": 3904,
      "X2": 3905,
      "J1": 3906,
      "GE": 3907,
      "P2": 3908,
      "5n": 3909,
      "zT": 3910,
      "18,": 3911,
      "R__": 3912,
      "C1": 3913,
      "SI": 3914,
      "YT": 3915,
      "▁'Alice": 3916,
      "▁UNIQUE\n);\n\nCREATE": 3917,
      "tT": 3918,
      "▁DECIMAL(10,2)\n);\n\nCREATE": 3919,
      "ZE": 3920,
      "RVAL": 3921,
      "▁DATETIM": 3922,
      "ated": 3923,
      "fT": 3924,
      "▁VARCHAR(20)\n);": 3925,
      "▁INTERVAL": 3926,
      "mE": 3927,
      "rE": 3928,
      "Ve": 3929,
      "-02": 3930,
      "H1": 3931,
      "▁av": 3932,
      "▁DATETIME": 3933,
      "c__": 3934,
      "P1": 3935,
      "xT": 3936,
      "rT": 3937,
      "hE": 3938,
      "C2": 3939,
      "p1": 3940,
      "5L": 3941,
      "md": 3942,
      "'),\n": 3943,
      "0n": 3944,
      "u1": 3945,
      "tE": 3946,
      "xE": 3947,
      "0L": 3948,
      "ure": 3949,
      "ye": 3950,
      "6I": 3951,
      "qe": 3952,
      ".5": 3953,
      "▁5,": 3954,
      "0e": 3955,
      "5e": 3956,
      "5D": 3957,
      "N1": 3958,
      "fE": 3959,
      "R1": 3960,
      "hT": 3961,
      "xp": 3962,
      "N2": 3963,
      "J2": 3964,
      "S1": 3965,
      "-9": 3966,
      "me": 3967,
      "mT": 3968,
      "%';": 3969,
      "Ye": 3970,
      "H2": 3971,
      "p2": 3972,
      "6)": 3973,
      "S2": 3974,
      "u2": 3975,
      "ze": 3976,
      "▁'{\"": 3977,
      "ed',": 3978,
      "R2": 3979,
      "s,": 3980,
      "5T": 3981,
      "5E": 3982,
      "0000": 3983,
      "▁VARCHAR(15)\n);\n\nCREATE": 3984,
      "0E": 3985,
      "ice',": 3986,
      "ance": 3987,
      "Ze": 3988,
      "▁DECIMAL(18,": 3989,
      "3),\n": 3990,
      "0T": 3991,
      "8)": 3992,
      "▁HAV": 3993,
      "▁CASCADE;": 3994,
      "▁HAVING": 3995,
      "NER": 3996,
      "4-": 3997,
      "xe": 3998,
      ":00:00');": 3999,
      "d,": 4000,
      "▁INT,\n_": 4001,
      "l,": 4002,
      "▁14": 4003,
      "L,": 4004,
      "b,": 4005,
      "sp": 4006,
      "k,": 4007,
      "ea": 4008,
      "-15'": 4009,
      "▁B',": 4010,
      "V,": 4011,
      "min": 4012,
      "igh": 4013,
      "age": 4014,
      "9)": 4015,
      "K,": 4016,
      "j,": 4017,
      "w,": 4018,
      "B)": 4019,
      "di": 4020,
      "▁INNER": 4021,
      "U)": 4022,
      "su": 4023,
      "▁101": 4024,
      "F)": 4025,
      "▁(f": 4026,
      "O)": 4027,
      "ption": 4028,
      "-10',": 4029,
      "▁'2021-0": 4030,
      "lo": 4031,
      "I)": 4032,
      "g,": 4033,
      "▁LE": 4034,
      "i)": 4035,
      "6),\n": 4036,
      "▁(m": 4037,
      "456-7": 4038,
      "y,": 4039,
      "▁VARCHAR(15)": 4040,
      "▁BOOLEAN\n);": 4041,
      "t',": 4042,
      "Q)": 4043,
      "a)": 4044,
      "fi": 4045,
      "y',": 4046,
      "▁(z": 4047,
      "a',": 4048,
      "v,": 4049,
      "o)": 4050,
      "t,": 4051,
      "M)": 4052,
      "▁'Com": 4053,
      "q,": 4054,
      "Y,": 4055,
      "▁(G": 4056,
      "▁'Jane": 4057,
      "▁(Z": 4058,
      ".');": 4059,
      "▁(x": 4060,
      "ine": 4061,
      "W)": 4062,
      "X)": 4063,
      "▁CHAR": 4064,
      "▁'In": 4065,
      "mp": 4066,
      "pdated": 4067,
      "e6": 4068,
      "-01',": 4069,
      "A)": 4070,
      "▁_P": 4071,
      "ru": 4072,
      "▁_X": 4073,
      "h,": 4074,
      "b8": 4075,
      "▁(5": 4076,
      "▁_J": 4077,
      "P)": 4078,
      "▁(0": 4079,
      "ohnson": 4080,
      "N)": 4081,
      "C)": 4082,
      "r,": 4083,
      "▁_H": 4084,
      "J)": 4085,
      "59": 4086,
      "▁CH": 4087,
      "▁TIMESTAMPTZ,\n": 4088,
      "eo": 4089,
      "dc": 4090,
      "▁Main": 4091
    },
    "merges": [
      ", \n",
      "A R",
      "T A",
      "T E",
      "N T",
      "▁ I",
      "R E",
      "L E",
      "▁I NT",
      "A TE",
      "B LE",
      "▁ TA",
      "▁TA BLE",
      "▁ (",
      "# #",
      "I M",
      "▁ V",
      "▁ K",
      "▁ N",
      "C H",
      "CH AR",
      "▁V AR",
      "▁VAR CHAR",
      "E Y",
      ") ;",
      "▁K EY",
      "▁VARCHAR (",
      "\n );",
      "C RE",
      "CRE ATE",
      "▁( \n",
      "▁ P",
      "▁P R",
      "AR Y",
      "▁PR IM",
      "▁PRIM ARY",
      ") ,\n",
      "▁ S",
      "▁ D",
      "▁KEY ,\n",
      "▁ ##",
      "▁## #",
      "\n \n",
      "\n); \n\n",
      "\n);\n\n CREATE",
      "E S",
      "U L",
      "O T",
      "▁N OT",
      "UL L",
      "▁N ULL",
      "▁ _",
      "5 0",
      "▁INT ,\n",
      "A L",
      "▁VARCHAR( 50",
      "▁NULL ,\n",
      "1 0",
      "▁VARCHAR( 2",
      "▁ U",
      "E RE",
      "▁ F",
      "M E",
      "_ _",
      "▁ T",
      "D A",
      "5 5",
      "ME NT",
      "▁S TA",
      "DA TA",
      "TE MENT",
      "▁STA TEMENT",
      "▁TABLE DATA",
      "▁ CREATE",
      "X T",
      "▁ '",
      "▁VARCHAR(2 55",
      "▁D ATE",
      "▁ TE",
      "▁TE XT",
      "E R",
      "N C",
      "▁D E",
      "▁ W",
      "▁VARCHAR(50 ),\n",
      "I D",
      "▁DATE ,\n",
      "▁U U",
      "▁UU ID",
      "▁ RE",
      "▁TEXT ,\n",
      "▁RE F",
      "NC ES",
      "ERE NCES",
      "▁REF ERENCES",
      "M P",
      "▁T IM",
      "' ,",
      "▁ 2",
      "C IM",
      "▁DE CIM",
      "▁DECIM AL",
      "▁VARCHAR( 10",
      "ES TA",
      "ESTA MP",
      "▁TIM ESTAMP",
      "▁ B",
      "▁VARCHAR(50 )",
      "▁VARCHAR(255 ),\n",
      "▁ =",
      "R O",
      "▁ 1",
      "▁VARCHAR(10 0",
      "▁KEY \n);\n\nCREATE",
      "▁W H",
      "▁ A",
      "▁WH ERE",
      "▁S E",
      "RO M",
      "▁F ROM",
      "▁ O",
      "▁VARCHAR(255 )",
      "▁I N",
      "0 0",
      "▁ J",
      "C T",
      "▁TIMESTAMP ,\n",
      "▁ 3",
      "L O",
      "▁ t",
      "A T",
      "▁DECIMAL (",
      "▁ 0",
      "▁ C",
      "2 0",
      "▁ f",
      "▁ a",
      "I AL",
      "▁ 5",
      "ER IAL",
      "▁S ERIAL",
      "▁ p",
      "▁ s",
      "LE CT",
      "▁ c",
      "ER T",
      "S ERT",
      "▁IN SERT",
      "▁SE LECT",
      "▁INT O",
      "AL U",
      "ALU ES",
      "▁V ALUES",
      "▁ 4",
      "▁ L",
      "▁ G",
      "▁ i",
      "- 0",
      "▁ d",
      "▁ r",
      "▁F LO",
      "▁FLO AT",
      "▁ e",
      "▁ 8",
      "▁ 7",
      "▁ m",
      "▁ E",
      "▁ o",
      "▁ 6",
      "▁ u",
      "▁ Y",
      "▁ M",
      "▁ w",
      "▁ l",
      "▁ n",
      "▁ H",
      "▁ 9",
      "▁ b",
      "▁ v",
      "▁ h",
      "▁ g",
      "▁ R",
      "▁ y",
      "▁ q",
      "▁ k",
      "▁ j",
      "▁ x",
      "▁ Q",
      "▁ z",
      "▁ X",
      "▁ Z",
      "10 ,",
      "▁DECIMAL( 10,",
      "▁VARCHAR(100 ),\n",
      "▁INT \n);\n\nCREATE",
      "2 2",
      "▁NULL \n);\n\nCREATE",
      "▁VARCHAR(100 )",
      "▁' 20",
      "▁KEY \n);",
      "k _",
      "l _",
      "e _",
      "▁FLOAT ,\n",
      "n _",
      "t _",
      "r _",
      "g _",
      "x _",
      "m _",
      "d _",
      "y _",
      "w _",
      "I N",
      "G _",
      "a _",
      "b _",
      "p _",
      "q _",
      "h _",
      "V _",
      "s _",
      "J _",
      "F _",
      "f _",
      "o _",
      "z _",
      "j _",
      "c _",
      "8 _",
      "Q _",
      "7 _",
      "W _",
      "3 _",
      "X _",
      "9 _",
      "6 _",
      "I _",
      "u _",
      "1 _",
      "B _",
      "4 _",
      "v _",
      "K _",
      "U _",
      "i _",
      "Z _",
      "S _",
      "H _",
      "C _",
      "2 _",
      "M _",
      "Y _",
      "N _",
      "5 _",
      "D _",
      "P _",
      "O _",
      "A _",
      "L _",
      "▁DECIMAL ,\n",
      "R _",
      "▁'20 22",
      "1 ,",
      "0 _",
      ") \n);\n\nCREATE",
      "E _",
      "T _",
      "1 5",
      "R U",
      "-0 1",
      "P D",
      "▁ 10",
      "▁B Y",
      "e r",
      "▁VARCHAR(2 0",
      "' );",
      "▁VARCHAR ,\n",
      "1 2",
      "R D",
      "l e",
      "T R",
      "i n",
      "o n",
      "▁VARCHAR(50) \n);\n\nCREATE",
      "4 5",
      "a t",
      "▁T RU",
      "O O",
      "▁TEXT \n);\n\nCREATE",
      "LE TE",
      "▁DE LETE",
      "A N",
      "e n",
      "▁2 ),\n",
      "▁INT \n);",
      "' ;",
      "▁SE T",
      "NC ATE",
      "▁TRU NCATE",
      "PD ATE",
      "▁U PDATE",
      "▁NULL \n);",
      "▁DATE \n);\n\nCREATE",
      "o r",
      "▁( 1,",
      "i t",
      "o m",
      "i c",
      "▁UUID ,\n",
      "a n",
      ": 00",
      "e s",
      "IN G",
      "N D",
      "▁O RD",
      "▁ORD ER",
      "▁VARCHAR(255) \n);\n\nCREATE",
      "a m",
      "I Q",
      "e d",
      "U E",
      "TR ING",
      "▁S TRING",
      "a r",
      "o h",
      "5 ,",
      "a l",
      "▁B OO",
      "▁VARCHAR(20 ),\n",
      "O N",
      "▁( '",
      "LE AN",
      "▁BOO LEAN",
      "8 9",
      "- 4",
      "▁_ _",
      "▁ *",
      "c t",
      "o e",
      "S C",
      "3 0",
      "r o",
      "6 7",
      "▁ >",
      "e x",
      ") \n);",
      "2 3",
      "ES C",
      "▁D ESC",
      "2 ,",
      "▁DECIMAL(10, 2",
      "▁'2022 -01",
      "▁'2022 -0",
      "r e",
      "1 7",
      "▁STRING ,\n",
      "6 6",
      "▁A ND",
      "▁U N",
      "2 1",
      "o u",
      "▁VARCHAR(50) \n);",
      "d 3",
      "1 4",
      "IQ UE",
      "▁UN IQUE",
      "▁TEXT \n);",
      "a s",
      "I G",
      "e w",
      "i s",
      "o t",
      "▁1 ;",
      "▁TIMESTAMP \n);\n\nCREATE",
      "- 15",
      "e m",
      "e t",
      "c h",
      "▁VARCHAR(10 ),\n",
      "i l",
      "▁DATE \n);",
      "▁VARCHAR(255) \n);",
      "F A",
      "▁BOOLEAN ,\n",
      "▁VARCHAR( 15",
      "__ _",
      "1 1",
      "i v",
      "a b",
      "o l",
      "9 9",
      "3 e",
      "a g",
      "n t",
      "O U",
      "e l",
      "a d",
      "i g",
      "I K",
      "1 6",
      "u s",
      "▁J S",
      "oh n",
      "▁DESC ;",
      "c e",
      "u r",
      "A l",
      "8 7",
      "U M",
      "U P",
      "▁2 )",
      "▁( _",
      "D E",
      "u m",
      "1 8",
      "i on",
      "▁JS ON",
      "o s",
      "p p",
      "3 1",
      "d u",
      "I T",
      "I S",
      "▁IN TE",
      "e c",
      "a c",
      "p t",
      "o w",
      "2 5",
      "▁ 50",
      "6 5",
      "i m",
      "0 1",
      "o g",
      "W E",
      "4 4",
      "▁VARCHAR(100) \n);\n\nCREATE",
      "o b",
      "f f",
      "▁O N",
      "u t",
      "- 12",
      "E T",
      "u l",
      "p le",
      "a y",
      "' )",
      "a 7",
      "o d",
      "T Z",
      "▁TIM E",
      "n d",
      "4 3",
      "▁1 ,",
      "o c",
      "▁DECIMAL(10,2 ),\n",
      "1 9",
      "e f",
      "E N",
      "c om",
      "i r",
      "u e",
      "p d",
      "i d",
      "3 4",
      "7 5",
      "c c",
      "8 0",
      "i f",
      "9 b",
      "a v",
      "s t",
      "R V",
      "3 3",
      "( _",
      "I n",
      "e g",
      "8 b",
      "h t",
      "A V",
      "2 b",
      "p l",
      "6 b",
      "n g",
      "in g",
      "8 5",
      "S E",
      "- 10",
      "s m",
      "e v",
      "S t",
      "8 4",
      "8 f",
      "C h",
      "G ER",
      "o p",
      "A P",
      "1 b",
      "a f",
      "8 d",
      "a 0",
      "c r",
      "6 f",
      "9 0",
      "▁INTE GER",
      "7 7",
      "i z",
      "V G",
      "a k",
      "B C",
      "6 0",
      "t h",
      "▁J O",
      "6 4",
      "a 4",
      "1 d",
      "a 5",
      "H Y",
      "c d",
      "2 4",
      "a 9",
      "O G",
      "I C",
      "6 d",
      "h e",
      "2 f",
      "3 b",
      "3 d",
      "a p",
      "2 d",
      "45 6",
      "t s",
      "O W",
      "▁VARCHAR(15 ),\n",
      "o v",
      "i k",
      "u d",
      "3 ,",
      ". com",
      "▁'2022-01 -01",
      "i b",
      "▁10 0",
      "9 d",
      "u b",
      "o y",
      "am ple",
      "S m",
      "9 f",
      "2 7",
      "c b",
      "u n",
      "e b",
      "1 f",
      "t r",
      "I m",
      "9 7",
      "c 7",
      "p s",
      "3 f",
      "l y",
      "A d",
      "F r",
      "c 0",
      "o k",
      "w n",
      "3 7",
      "X Y",
      "9 5",
      "g r",
      "c 4",
      "c f",
      "3 5",
      "9 4",
      "c 5",
      "i q",
      "p r",
      "s e",
      "F T",
      "2 8",
      "U S",
      "a z",
      "U R",
      "i x",
      "E x",
      "e 5",
      "e 7",
      "▁' J",
      "o f",
      "A X",
      "▁JO IN",
      "a h",
      "i p",
      "a w",
      "a x",
      "e y",
      "C K",
      "c l",
      "D r",
      "I P",
      "B v",
      "B l",
      "B q",
      "J K",
      "B r",
      "a j",
      "B Y",
      "a Z",
      "u p",
      "i j",
      "8 8",
      "F K",
      "Q L",
      "I j",
      "F Z",
      "H y",
      "a q",
      "i G",
      "J b",
      "a K",
      "w w",
      "B y",
      "o x",
      "a G",
      "i Y",
      "J z",
      "B m",
      "F l",
      "J Y",
      "F v",
      "F G",
      "I Z",
      "e p",
      "I z",
      "B j",
      "B z",
      "B K",
      "I y",
      "I b",
      "F q",
      "J G",
      "J Z",
      "a Y",
      "J m",
      "F b",
      "F k",
      "X v",
      "u x",
      "F z",
      "B Z",
      "B x",
      "J j",
      "B k",
      "i Z",
      "J v",
      "P r",
      "F m",
      "i K",
      "J q",
      "J x",
      "F y",
      "o Z",
      "e 0",
      "A Y",
      "W v",
      "e 4",
      "I k",
      "J y",
      "H K",
      "J k",
      "i y",
      "a 6",
      "u g",
      "i 0",
      "▁( 2,",
      "ex ample",
      "I Y",
      "B G",
      "F j",
      "W m",
      "F Y",
      "I v",
      "I x",
      "i V",
      "C l",
      "H q",
      "o z",
      "J g",
      "F x",
      "Q K",
      "J V",
      "B b",
      "U n",
      "S h",
      "I q",
      "o j",
      "W q",
      "o G",
      "X q",
      "X y",
      "Q m",
      "U s",
      "W G",
      "Q Y",
      "X k",
      "Q G",
      "W k",
      "F V",
      "Q y",
      "F g",
      "B f",
      "W Z",
      "u y",
      "W K",
      "H Z",
      "E m",
      "F f",
      "I f",
      "A m",
      "H v",
      "X K",
      "H k",
      "Q Z",
      "A v",
      "W b",
      "P h",
      "W y",
      "J f",
      "o q",
      "B g",
      "X x",
      "Q x",
      "H z",
      "F 0",
      "Q q",
      "W h",
      "I g",
      "X b",
      "C G",
      "P l",
      "a V",
      "M y",
      "U G",
      "o Y",
      "Q k",
      "X G",
      "W x",
      "2 j",
      "B V",
      "B 7",
      "X Z",
      "I t",
      "Q j",
      "H j",
      "W Y",
      "I V",
      "Q z",
      "i 7",
      "H G",
      "2 m",
      "B d",
      "= '",
      "M q",
      "u v",
      "u q",
      "Q v",
      "o V",
      "u f",
      "I r",
      "W j",
      "c y",
      "2 k",
      "X m",
      "X z",
      "u Y",
      "H V",
      "H b",
      "U Y",
      "M b",
      "S y",
      "H x",
      "U z",
      "X j",
      "Q b",
      "U v",
      "2 K",
      "H m",
      "X f",
      "F 4",
      "F d",
      "F h",
      "Q g",
      "u Z",
      "W f",
      "W g",
      "J h",
      "i w",
      "o K",
      "I s",
      "W r",
      "2 x",
      "M Y",
      "W V",
      "F 7",
      "M k",
      "W z",
      "A s",
      "Q V",
      "M j",
      "I h",
      "U j",
      "J 0",
      "U k",
      "J w",
      "U b",
      "2 z",
      "C r",
      "u G",
      "F w",
      "e h",
      "u j",
      "U x",
      "2 v",
      "M G",
      "X V",
      "U y",
      "I w",
      "F 5",
      "2 Z",
      "M K",
      "▁ <",
      "U K",
      "B 0",
      "2 q",
      "I 0",
      "U Z",
      "a L",
      "M m",
      "U m",
      "X h",
      "I d",
      "M x",
      "I 5",
      "u k",
      "i h",
      "2 6",
      "X g",
      "8 Y",
      "8 z",
      "I L",
      "u K",
      "M z",
      "A b",
      "8 K",
      "i L",
      "R Y",
      "J d",
      "A G",
      "I 7",
      "M Z",
      "H g",
      "2 y",
      "o 7",
      "F L",
      "8 q",
      "B w",
      "J l",
      "B s",
      "2 G",
      "2 9",
      "B h",
      "A n",
      "Q r",
      "J L",
      "F D",
      "u z",
      "N G",
      "i 5",
      "▁FLOAT \n);\n\nCREATE",
      "S k",
      "p g",
      "P G",
      "X l",
      "o 0",
      "p h",
      "F s",
      "J 7",
      "J s",
      "O b",
      "A j",
      "U q",
      "B 4",
      "J r",
      "T h",
      "i 4",
      "J 4",
      "H f",
      "W w",
      "B t",
      "O r",
      "B 5",
      "S G",
      "1 k",
      "F n",
      "Q f",
      "U V",
      "J t",
      "8 h",
      "C m",
      "M g",
      "B D",
      "8 G",
      "U r",
      "2 Y",
      "Q 7",
      "A r",
      "2 V",
      "A q",
      "M v",
      "M f",
      "8 m",
      "o L",
      "N Y",
      "8 y",
      "u V",
      "O z",
      "A z",
      "S b",
      "8 6",
      "U f",
      "U g",
      "X r",
      "I l",
      "O Z",
      "A k",
      "Q h",
      "S Y",
      "Q d",
      "J D",
      "B n",
      "P y",
      "O Y",
      "H r",
      "8 x",
      "Q l",
      "C y",
      "Q 0",
      "A y",
      "2 l",
      "A x",
      "X s",
      "B L",
      "H d",
      "M d",
      "S q",
      "1 x",
      "H 0",
      "W L",
      "X w",
      "J 5",
      "P k",
      "8 v",
      "A g",
      "o 5",
      "8 Z",
      "H L",
      "X 7",
      "Q 5",
      "X 0",
      "3 m",
      "example .com",
      "P K",
      "U l",
      "O v",
      "1 m",
      "O q",
      "X d",
      "W 5",
      "H w",
      "M V",
      "Q 4",
      "X L",
      "W 7",
      "O x",
      "8 k",
      "i D",
      "H h",
      "S Z",
      "X t",
      "O y",
      "O j",
      "u 7",
      "I 4",
      "W 0",
      "3 y",
      "W l",
      "A Z",
      "Q w",
      "8 j",
      "2 g",
      "O V",
      "C j",
      "W d",
      "S v",
      "U w",
      "a D",
      "H l",
      "2 L",
      "3 j",
      "U d",
      "P q",
      "1 z",
      "W 4",
      "J n",
      "A K",
      "S z",
      "R z",
      "S j",
      "1 q",
      "P j",
      "S x",
      "P z",
      "M r",
      "A f",
      "R m",
      "N x",
      "3 k",
      "H 4",
      "O k",
      "R q",
      "8 V",
      "S K",
      "W n",
      "X n",
      "1 y",
      "R K",
      "2 w",
      "W s",
      "3 Z",
      "1 Y",
      "O K",
      "U t",
      "c x",
      "H 5",
      "W D",
      "H 7",
      "u h",
      "P x",
      "2 h",
      "Q n",
      "R x",
      "U 7",
      "2 s",
      "O L",
      "3 z",
      "1 j",
      "R k",
      "8 g",
      "C b",
      "C k",
      "1 Z",
      "A 0",
      "o D",
      "3 Y",
      "R G",
      "3 v",
      "X D",
      "3 G",
      "W t",
      "N z",
      "O f",
      "O m",
      "M 0",
      "C v",
      "C V",
      "S f",
      "P Z",
      "F t",
      "c k",
      "O g",
      "M w",
      "3 q",
      "X 4",
      "R y",
      "R v",
      "P b",
      "P v",
      "C Z",
      "1 K",
      "P Y",
      "U h",
      "S g",
      "u 0",
      "1 v",
      "N k",
      "M h",
      "A D",
      "9 G",
      "S V",
      "N K",
      "N y",
      "U 4",
      "N m",
      "3 K",
      "H t",
      "8 r",
      "C q",
      "M 7",
      "O n",
      "H s",
      "N j",
      "6 Z",
      "Q t",
      "H n",
      "9 z",
      "N q",
      "C x",
      "R b",
      "u L",
      "o 4",
      "u w",
      "P f",
      "N b",
      "2 r",
      "6 Y",
      "S w",
      "N f",
      "a T",
      "6 K",
      "R Z",
      "Q s",
      "R j",
      "c Y",
      "N Z",
      "1 G",
      "N v",
      "1 g",
      "P m",
      "M l",
      "B T",
      "u 5",
      "S L",
      "3 x",
      "P V",
      "8 L",
      "Q D",
      "c G",
      "M L",
      "i T",
      "9 v",
      "9 j",
      "6 m",
      "C Y",
      "A w",
      "c v",
      "X 5",
      "U 5",
      "c z",
      "U 0",
      "R g",
      "9 k",
      "3 V",
      "6 j",
      "3 g",
      "9 Z",
      "9 Y",
      "N g",
      "9 y",
      "9 q",
      "A 5",
      "H D",
      "u D",
      "1 V",
      "C z",
      "8 t",
      "S 0",
      "A 7",
      "M 5",
      "6 q",
      "6 x",
      "2 n",
      "M 4",
      "9 K",
      "A h",
      "M n",
      "N V",
      "2 D",
      "8 l",
      "O d",
      "J T",
      "6 G",
      "M s",
      "A 4",
      "U D",
      "M t",
      "6 y",
      "8 s",
      "O l",
      "C d",
      "S n",
      "c K",
      "1 l",
      "p m",
      "A t",
      "O w",
      "6 z",
      "c j",
      "S 7",
      "U T",
      "E v",
      "6 k",
      "S d",
      "C f",
      "8 w",
      "▁TIMESTAMP \n);",
      "c Z",
      "O h",
      "C 7",
      "p k",
      "c q",
      "R l",
      "c m",
      "p y",
      "8 n",
      "O 0",
      "R f",
      "O 7",
      "S l",
      "P 7",
      "1 h",
      "6 g",
      "u 4",
      "c V",
      "M D",
      "9 x",
      "p Z",
      "N r",
      "3 r",
      "S D",
      "00 0",
      "c g",
      "P g",
      "e k",
      "3 h",
      "S r",
      "P 0",
      "p Y",
      "C g",
      "3 w",
      "C 0",
      "N 0",
      "6 v",
      "R w",
      "2 t",
      "P d",
      "S 4",
      "8 D",
      "p x",
      "H T",
      "N w",
      "C L",
      "p j",
      "O s",
      "R L",
      "9 g",
      "9 L",
      "P 5",
      "P n",
      "p q",
      "P w",
      "p V",
      "O 4",
      "S 5",
      "9 h",
      "9 m",
      "e q",
      "p K",
      "R d",
      "3 s",
      "R 0",
      "R t",
      "C 5",
      "N L",
      "N d",
      "o T",
      "1 r",
      "3 n",
      "O D",
      "1 w",
      "R 7",
      "p z",
      "u T",
      "p v",
      "N 7",
      "9 r",
      "Q T",
      "S s",
      "9 V",
      "R r",
      "C w",
      "P L",
      "W T",
      "6 V",
      "6 w",
      "3 l",
      "N h",
      "N n",
      "p b",
      "p w",
      "O t",
      "1 t",
      "p f",
      "1 s",
      "1 L",
      "N l",
      "R h",
      "O 5",
      "1 n",
      "2 T",
      "S T",
      ":00 ',",
      "9 l",
      "P s",
      "1 D",
      "p G",
      "N 5",
      "3 L",
      "C 4",
      "N t",
      "6 l",
      "C s",
      "c L",
      "R s",
      "N s",
      "M T",
      "3 D",
      "6 h",
      "P t",
      "C n",
      "6 n",
      "▁A SC",
      "C D",
      "9 w",
      "e ',",
      "3 t",
      "P 4",
      "6 D",
      "R 5",
      "R 4",
      ". 00",
      "e G",
      "F E",
      "B E",
      "c w",
      "6 L",
      "c n",
      "C t",
      "R n",
      "8 T",
      "N 4",
      "6 s",
      "i E",
      "9 s",
      "a E",
      "e Y",
      "6 r",
      "6 t",
      "e V",
      "9 n",
      "p 7",
      "I E",
      "p 0",
      "e j",
      "e z",
      "e Z",
      "9 t",
      "c D",
      "p 4",
      "J E",
      "c s",
      "e K",
      "p L",
      "3 T",
      "9 D",
      "▁DECIMAL \n);\n\nCREATE",
      "1 T",
      "p 5",
      "P T",
      "R T",
      "▁DECIMAL( 5,",
      "X E",
      "p D",
      "H E",
      "Q E",
      "p n",
      "e L",
      "- a",
      "o E",
      "2 E",
      "9 T",
      "u E",
      "@ example.com",
      "6 T",
      "c T",
      "8 E",
      "e D",
      "en t",
      "A E",
      "p T",
      "3 E",
      "C E",
      "P E",
      "N E",
      "▁UNIQUE ,\n",
      "1 E",
      "O E",
      "45 67",
      "▁VARCHAR(20 )",
      "e T",
      "6 E",
      "c E",
      "9 E",
      "▁VARCHAR \n);\n\nCREATE",
      "it h",
      "p E",
      "▁TIME ,\n",
      "▁' M",
      "8 ,",
      "- e",
      "e E",
      "▁' P",
      "▁JSON B",
      "▁' 12",
      "▁' S",
      "▁'J ohn",
      "▁' C",
      "b b",
      "▁A S",
      "▁D oe",
      "0 ,",
      "2 ),\n",
      "b 7",
      "-4 2",
      "89 b",
      "b f",
      "d 4",
      "▁BY TE",
      "b 5",
      "b 4",
      "b 0",
      "-42 66",
      "▁F O",
      "-12 d3",
      "-a 456",
      "l m",
      "-a456 -4266",
      "7 4",
      "i o",
      "-12d3 -a456-4266",
      "-e 89b",
      "d 5",
      ": 30",
      "-e89b -12d3-a456-4266",
      "d f",
      "s f",
      "17 4",
      "2 c",
      "n v",
      "7 f",
      "s h",
      "▁VARCHAR(100) \n);",
      "d 0",
      "▁BYTE A",
      "r y",
      "7 0",
      "t y",
      "i a",
      "d s",
      "UL T",
      "▁' N",
      "4567 -e89b-12d3-a456-4266",
      "n s",
      "g m",
      "4 0",
      "T r",
      "p e",
      "t m",
      "14 174",
      "g y",
      "4 f",
      "IG N",
      "k s",
      "▁0 .",
      "T y",
      "FA ULT",
      "l l",
      "n f",
      "▁FO RE",
      "d 7",
      "d r",
      "▁FORE IGN",
      "n y",
      "▁DE FAULT",
      "2 e",
      "K Y",
      "▁'20 21",
      "k z",
      "k x",
      "8 c",
      "V x",
      "K m",
      "k y",
      "j q",
      "D m",
      "8 e",
      "n m",
      "s s",
      "K Z",
      "D x",
      "j G",
      "k m",
      "j y",
      "L q",
      "0 x",
      "▁' j",
      "K z",
      "D z",
      "V Y",
      "H e",
      "K x",
      "V m",
      "1 e",
      "d v",
      "K q",
      "b y",
      "k G",
      "a e",
      "3 6",
      "j z",
      "j m",
      "9 ,",
      "L v",
      "D G",
      "K y",
      "K G",
      "V v",
      "▁FLOAT \n);",
      "D Z",
      "k Y",
      "k q",
      "D Y",
      "D v",
      "0 5",
      "V z",
      "d m",
      "k Z",
      "d y",
      "4 ,",
      "V y",
      "w q",
      "V Z",
      "L x",
      "K f",
      "V q",
      "L G",
      "9 6",
      "k v",
      "b x",
      "L z",
      "j Y",
      "j Z",
      "L y",
      "D y",
      "3 c",
      "k f",
      "j x",
      "L Z",
      "l Z",
      "L m",
      "b G",
      "i e",
      "b v",
      "1 c",
      "O I",
      "K v",
      "g h",
      "b q",
      "L f",
      "l Y",
      "L Y",
      "l G",
      "V h",
      "b Z",
      "D q",
      "n q",
      "g Y",
      "l v",
      "4567-e89b-12d3-a456-4266 14174",
      "w m",
      "g v",
      "w Z",
      "D f",
      "l q",
      "n Z",
      "w z",
      "w v",
      "g x",
      "j f",
      "l x",
      "j v",
      "n x",
      "1 a",
      "g G",
      "n Y",
      "n z",
      "w y",
      "V f",
      "T v",
      "▁2 )\n);\n\nCREATE",
      "d q",
      "w x",
      "d Z",
      "b m",
      "D h",
      "b z",
      "k h",
      "T x",
      "Q u",
      "V r",
      "V 5",
      "d Y",
      "g z",
      "T Y",
      "j h",
      "d z",
      "b r",
      "w f",
      "l z",
      "9 e",
      "b Y",
      "K r",
      "T q",
      "▁ASC ;",
      "n h",
      "9 c",
      "T z",
      "k 5",
      "w r",
      "D 5",
      "n G",
      "K 5",
      "g q",
      "d x",
      "T f",
      "w Y",
      "g f",
      "K h",
      "g Z",
      "▁f k_",
      "j 5",
      "w G",
      "T m",
      "7 q",
      "L h",
      "F F",
      "L r",
      "T G",
      "b h",
      "j r",
      "l f",
      "L 5",
      "7 m",
      "w h",
      "k r",
      "l s",
      "7 y",
      "at ion",
      "d h",
      "7 v",
      "D 0",
      "J J",
      "W H",
      "B X",
      "7 z",
      "7 Y",
      "7 x",
      "B P",
      "l h",
      "l 5",
      "7 Z",
      "t x",
      "l r",
      "w 5",
      "7 G",
      "n 5",
      "d G",
      "i X",
      "K 0",
      "4 y",
      "7 h",
      "4 G",
      "F P",
      "4 x",
      "1 3",
      "4 Y",
      "t G",
      "j 0",
      "V 0",
      "4 m",
      "W P",
      "4 q",
      "W X",
      "Q X",
      "4 v",
      "ic e",
      "B e",
      "B 6",
      "t Y",
      "i 6",
      "t Z",
      "T 5",
      "n r",
      "L 0",
      "W J",
      "8 a",
      "O p",
      "k 0",
      "Q J",
      "w 0",
      "t f",
      "V s",
      "g 5",
      "I X",
      "2 a",
      "4 Z",
      "t z",
      "j s",
      "B S",
      "( \n",
      "i M",
      "i P",
      "4 z",
      "- 20",
      "b s",
      "E q",
      "B N",
      "i H",
      "g 0",
      "E G",
      "E y",
      "B H",
      "2 P",
      "B J",
      "Q H",
      "B M",
      "t q",
      "Q P",
      "U X",
      "o X",
      "8 3",
      "o P",
      "i J",
      "i C",
      "B u",
      "i N",
      "2 X",
      "F 6",
      "n 0",
      "l 0",
      "W e",
      "W S",
      "I H",
      "I J",
      "E z",
      "c 6",
      "F C",
      "W 6",
      "D s",
      "O P",
      "t v",
      "8 P",
      "2 H",
      "E Z",
      "i S",
      "Q 6",
      "Q M",
      "Q C",
      "R e",
      "F H",
      "4 h",
      "g s",
      "o 6",
      "W p",
      "F X",
      "K s",
      "W N",
      "T 0",
      "F M",
      "-15 ',",
      "L s",
      "F J",
      "F e",
      "2 N",
      "I 6",
      "o J",
      "▁( 10",
      "W M",
      "F S",
      "I p",
      "8 X",
      "Q p",
      "Q S",
      "o H",
      "E f",
      "F u",
      "F N",
      "7 r",
      "F a",
      "A C",
      "A M",
      "B p",
      "i u",
      "9 a",
      "w s",
      "O S",
      "2 J",
      "E h",
      "B R",
      "U H",
      "1 H",
      "2 S",
      "1 P",
      "o C",
      "E r",
      "1 X",
      "▁UUID \n);\n\nCREATE",
      "8 M",
      "U C",
      "U J",
      "A 6",
      "8 C",
      "Q N",
      "U p",
      "A S",
      "t 5",
      "W C",
      "4 r",
      "2 M",
      "o S",
      "I u",
      "T s",
      "8 H",
      "▁DECIMAL \n);",
      "A H",
      "o N",
      "W u",
      "I e",
      "U N",
      "U 6",
      "O J",
      "E 5",
      "F p",
      "8 J",
      "O H",
      "3 P",
      "A J",
      "2 C",
      "O X",
      "2 p",
      "B c",
      "o M",
      "3 9",
      "@example.com ',",
      "8 N",
      "A p",
      "Q e",
      "Q R",
      "F c",
      "2 u",
      "8 p",
      "O M",
      "O 6",
      "W R",
      "I c",
      "I R",
      "1 C",
      "O u",
      "7 s",
      "1 N",
      "W c",
      "1 J",
      "i R",
      "3 a",
      "8 S",
      "A c",
      "t 0",
      "U c",
      "Q c",
      "2 R",
      "9 X",
      "U u",
      "9 P",
      "F R",
      "3 J",
      "A u",
      "U e",
      "4 s",
      "E 0",
      "O C",
      "o R",
      "1 M",
      "O e",
      "9 H",
      "9 J",
      "3 X",
      "▁JSONB ,\n",
      "1 S",
      "8 u",
      "1 p",
      "O c",
      "A e",
      "▁2 0",
      "B a",
      "3 C",
      "3 M",
      "1 u",
      "1 R",
      "O R",
      "3 N",
      "E s",
      "3 H",
      "9 S",
      "9 p",
      "8 R",
      "a P",
      "▁' A",
      "9 N",
      "a X",
      "3 S",
      "9 C",
      "a N",
      "9 M",
      "b d",
      "a u",
      "▁' D",
      "3 u",
      "a J",
      "a H",
      "9 u",
      "▁S m",
      "3 p",
      "▁Doe ',",
      "1 ;",
      "i ,",
      "a C",
      "l g",
      "3 R",
      "y s",
      "a S",
      "d oe",
      "a le",
      "a M",
      "o ,",
      "B ,",
      "9 R",
      "f 5",
      "n j",
      "d b",
      "k g",
      "L t",
      "I ,",
      "F ,",
      "K V",
      "7 b",
      "k t",
      "k V",
      "Q ,",
      "k j",
      "L j",
      "D V",
      "L g",
      "K g",
      "U ,",
      "6 e",
      "y z",
      "IK E",
      "L V",
      "Y Z",
      "W ,",
      "a l_",
      "K t",
      "3e 4567-e89b-12d3-a456-426614174",
      "D j",
      "▁'20 23",
      "l V",
      "_ m",
      "D t",
      "K j",
      "▁2 ,",
      "a R",
      "_ x",
      "w g",
      "f 0",
      "4 7",
      "n V",
      "▁10 00",
      "A ,",
      "l t",
      "D g",
      "w V",
      "d d",
      "w t",
      "v z",
      "O ,",
      ":00 :00",
      "w j",
      "_ Z",
      "Y G",
      "v x",
      "q G",
      "_ G",
      "_ z",
      "q z",
      "▁_ m",
      "l j",
      "▁_ Z",
      "q m",
      "T V",
      "q x",
      "y m",
      "7 g",
      "v m",
      "q Z",
      "6 c",
      "v Z",
      "▁_ G",
      "l d",
      "▁_ x",
      "v G",
      "b t",
      "▁_ z",
      "r r",
      "_ 5",
      "T t",
      "b V",
      "i Q",
      "T j",
      "Y z",
      "▁L IKE",
      "B Q",
      "T g",
      "b j",
      "D 4",
      "_ h",
      "K K",
      "b g",
      "7 d",
      "Y x",
      "y G",
      "k 4",
      "T S",
      "s G",
      "X X",
      "q f",
      "Y h",
      "y Z",
      "_ f",
      "y x",
      "2 Q",
      "Y m",
      "▁_ h",
      "F i",
      "r x",
      "L 4",
      "o Q",
      "v h",
      "I W",
      "7 V",
      "q h",
      "M S",
      "r Z",
      "k K",
      "7 t",
      "9 8",
      "B B",
      "s x",
      "q 5",
      "6 ,",
      "▁_ 5",
      "7 j",
      "r z",
      "F W",
      "2 W",
      "s Z",
      "M H",
      "w 4",
      "s ',",
      "s z",
      "U Q",
      "r G",
      "o W",
      "▁_ f",
      "E V",
      "r m",
      "k l",
      "a ,",
      "d V",
      "n 4",
      "▁VARCHAR \n);",
      "d t",
      "F Q",
      "E g",
      "P P",
      "d g",
      "E j",
      "q 0",
      "O Q",
      "U W",
      "y f",
      "y h",
      "D K",
      "M C",
      "b l",
      "i W",
      "▁DECIMAL(10,2 )",
      "v 5",
      "▁' L",
      "T 4",
      "M J",
      "▁'N ew",
      "d j",
      "B W",
      "y 5",
      "E t",
      "▁VARCHAR(20 )\n);\n\nCREATE",
      "M X",
      "u u",
      "v f",
      "L K",
      "w K",
      "Y 5",
      "A Q",
      "A W",
      "n n",
      "M N",
      "Y f",
      "_ 0",
      "r h",
      "3 -",
      "▁'2022 -10",
      "6 C",
      "6 J",
      "F o",
      "▁5 ;",
      "D l",
      "T K",
      "k k",
      "3 2",
      "H J",
      "H R",
      "M e",
      "▁_ 0",
      "▁3 ;",
      "M p",
      "L l",
      "u J",
      "X P",
      "N J",
      "X J",
      "B i",
      "6 P",
      "r 5",
      "X S",
      "Y 0",
      "1 W",
      "s 5",
      "n K",
      "N P",
      "1 Q",
      "v 0",
      "T w",
      "T e",
      "F 9",
      "D 7",
      "u P",
      "X C",
      "H S",
      "8 W",
      "b K",
      "L 7",
      "8 Q",
      "r f",
      "c P",
      "E 4",
      "u S",
      "L k",
      "L w",
      "▁C A",
      "X p",
      "6 S",
      "D w",
      "D k",
      "u C",
      "a a",
      "B 9",
      ".00 ,",
      "c J",
      "B U",
      "o o",
      "D n",
      "R J",
      "ith ',",
      "H C",
      "H P",
      "L n",
      "N S",
      "z G",
      "R C",
      "y 0",
      "N p",
      "j e",
      "R S",
      "z m",
      "N e",
      "l 4",
      "I 9",
      "T k",
      "R P",
      "3 W",
      "F U",
      "z x",
      "3 Q",
      "b k",
      "H p",
      "l K",
      "I i",
      "r 0",
      "s 0",
      "UM (",
      "B o",
      "I A",
      "B A",
      "O 9",
      "D d",
      "▁G RO",
      "Z m",
      "c C",
      "I U",
      "X e",
      "t t",
      "L d",
      "c S",
      "▁JSON ,\n",
      "▁GRO UP",
      "b w",
      "I a",
      "Z x",
      "6 p",
      "h m",
      "R p",
      "▁S t",
      "l i",
      "I o",
      "Z G",
      "3 8",
      ":00 :00',",
      "▁t ot",
      "T n",
      "E K",
      "▁_ Y",
      "z f",
      "0 .",
      "b n",
      "▁(\n _",
      "▁j _",
      "▁0 _",
      "7 K",
      "2 A",
      "c i",
      "q q",
      "▁1 _",
      "it y",
      "j V",
      "▁E _",
      "▁W _",
      "v Y",
      "\" :",
      "▁e _",
      "▁D _",
      "▁O _",
      "▁5 _",
      "E n",
      "h x",
      "2 )",
      "▁y _",
      "▁m _",
      "▁p _",
      "▁l _",
      "a in",
      "c p",
      "l w",
      "h G",
      "▁A _",
      "▁v _",
      "5 f",
      "▁6 _",
      "▁9 _",
      "▁H _",
      "▁7 _",
      "▁q _",
      "▁Z _",
      "▁x _",
      "2 U",
      "▁0 8",
      "▁i _",
      "▁I _",
      "g V",
      "▁k _",
      "▁F _",
      "l k",
      "▁o _",
      "M u",
      "▁S _",
      "O A",
      "▁s _",
      "O i",
      "▁h _",
      "▁r _",
      "O a",
      "▁R _",
      "▁z _",
      "▁K _",
      "▁f _",
      "▁g _",
      "v q",
      "▁U _",
      "v y",
      "▁b _",
      "▁' R",
      "▁Y _",
      "▁Q _",
      "▁n _",
      "▁c _",
      "▁4 _",
      "▁a _",
      "▁M _",
      "▁J _",
      "▁L _",
      "▁_ q",
      "▁t _",
      "r s",
      "▁X _",
      "▁P _",
      "▁B _",
      "▁G _",
      "2 i",
      "▁3 _",
      "E k",
      "T 7",
      "▁T _",
      "▁8 _",
      "j t",
      "▁2 _",
      "6 N",
      "2 o",
      "▁u _",
      "▁d _",
      "▁N _",
      "Z f",
      "d K",
      "B 8",
      "B F",
      "1 A",
      "G G",
      "D D",
      "▁V _",
      "g t",
      "▁C _",
      "▁_ y",
      "6 H",
      "6 X",
      "3 U",
      "▁tot al_",
      "▁w _",
      "9 W",
      "1 i",
      "z 5",
      "L L",
      "A DE",
      "I 8",
      "O o",
      "C P",
      "4 V",
      "E w",
      "▁INTEGER ,\n",
      "N N",
      "I F",
      "e e",
      "r t",
      "T d",
      "1 U",
      "l n",
      "z Z",
      "4 t",
      "l 7",
      "9 Q",
      "j g",
      "v s",
      "z h",
      "-0 5",
      "6 u",
      "M R",
      "D b",
      "L b",
      "z 0",
      "q Y",
      "a Q",
      "C J",
      "1 o",
      "V V",
      "m m",
      "H X",
      "a i",
      "E 7",
      "▁_ s",
      "M c",
      "x x",
      "4 g",
      "r Y",
      "w k",
      "▁'2022-01-01 ';",
      "A A",
      "S P",
      "U U",
      "j j",
      "a W",
      "T b",
      "3 i",
      "v v",
      "Z 5",
      "y y",
      "SC ADE",
      "▁CA SCADE",
      "2 F",
      "H u",
      "N X",
      "▁' Al",
      "I B",
      "c u",
      "p P",
      "r q",
      "h f",
      "V t",
      "▁' F",
      "0 f",
      "n k",
      "M ,",
      "O 8",
      "G m",
      "h 5",
      "w 7",
      "S J",
      "G x",
      "y Y",
      "g g",
      "3 A",
      "T l",
      "R u",
      "a 8",
      "3 o",
      "F 8",
      "Q W",
      "▁' G",
      "y q",
      "C C",
      "R X",
      "S p",
      "2 B",
      "c X",
      "▁STRING \n);\n\nCREATE",
      "t e",
      "j K",
      "H N",
      "D L",
      "7 k",
      "J P",
      "Z Z",
      "▁_ v",
      "E d",
      "NT (",
      "z z",
      "R N",
      "Y Y",
      "c N",
      "S e",
      "h 0",
      "x 5",
      "4 d",
      "▁VARCHAR(10 )",
      "i i",
      "G f",
      "G 5",
      "l b",
      "C p",
      "s q",
      "Z 0",
      "5 .",
      "n 7",
      "1 F",
      "M 6",
      "1 B",
      "Q Q",
      "n w",
      "T L",
      "4 K",
      "r v",
      "W W",
      "x m",
      "U A",
      ":30 :00",
      "s Y",
      "O F",
      "H H",
      "- 31",
      "I 3",
      "C e",
      "u X",
      "J p",
      "9 i",
      "n e",
      "V g",
      "M M",
      "O B",
      "4 j",
      "h h",
      "d k",
      "4 b",
      "J e",
      "8 o",
      "U i",
      "s y",
      "R ,",
      "E b",
      "R H",
      "8 A",
      "or k",
      "▁2 ;",
      "D T",
      "c H",
      "0 m",
      "9 o",
      "u N",
      "4 k",
      "S S",
      "a o",
      "f m",
      "3 F",
      "r g",
      "ro du",
      "▁_ t",
      "d w",
      "U o",
      "E l",
      "9 A",
      "z Y",
      "▁1 2",
      "h Z",
      "▁> =",
      "X N",
      "J S",
      "L D",
      "8 i",
      "G Z",
      "P e",
      "V K",
      "F B",
      "C S",
      "W Q",
      "7 w",
      "G 0",
      "c ,",
      "▁E N",
      "q y",
      "f x",
      "V j",
      "9 3",
      "g K",
      "3e4567-e89b-12d3-a456-426614174 000",
      "M Q",
      "q v",
      "k w",
      "a A",
      "d n",
      "L T",
      "q s",
      "R 6",
      "P p",
      "▁_ r",
      "u H",
      "P J",
      "i A",
      "x 0",
      "E D",
      "C X",
      "I O",
      "h z",
      "9 U",
      "4 w",
      "3 B",
      "c o",
      "g j",
      "C N",
      "▁_ K",
      "▁DECIMAL(5, 2),\n",
      "u ,",
      "h y",
      "M W",
      "▁B ET",
      "2 O",
      "8 U",
      "n b",
      "WE EN",
      "▁_ V",
      "T D",
      "▁BET WEEN",
      "J X",
      "k 7",
      "Y y",
      "I I",
      "x f",
      "H ,",
      "P S",
      "s v",
      "5 m",
      "n l",
      "E L",
      "d l",
      "▁ \"",
      "Z z",
      "▁'2022-0 9",
      "8 B",
      "q t",
      "R c",
      "▁_ g",
      "▁_ j",
      "9 B",
      "- 7",
      "x G",
      "k b",
      "a U",
      "8 F",
      "▁C OU",
      "u 6",
      "u c",
      "9 F",
      "v t",
      "A o",
      "1 O",
      "w b",
      "▁' %",
      "H 6",
      "rodu ct",
      "T T",
      "d e",
      "a 3",
      "a B",
      "J N",
      "G z",
      "R Q",
      "an e",
      "4 n",
      "E E",
      "y t",
      "S X",
      "▁'j ohn",
      "▁BYTEA ,\n",
      "Z Y",
      "P C",
      "l D",
      "r K",
      "h Y",
      "J C",
      "p X",
      "m 5",
      "P X",
      "k n",
      "8 1",
      "▁L IM",
      "M o",
      "r V",
      "m x",
      "▁Sm ith',",
      "▁A ',",
      "▁COU NT(",
      "P N",
      "y v",
      "a F",
      "s w",
      "▁LIM IT",
      "G Y",
      "▁' B",
      "r j",
      "▁( 3,",
      "8 2",
      "H c",
      "7 n",
      "W o",
      "O 3",
      "9 1",
      "9 2",
      "q g",
      "U F",
      "▁'2022-01-01 '",
      "S N",
      "6 Q",
      "U B",
      "A i",
      "R R",
      "m f",
      "E ,",
      "q V",
      "K w",
      "▁TIMESTAMP TZ",
      "W i",
      "12 3",
      "p J",
      "l L",
      "en d",
      "a 1",
      "d D",
      "v g",
      "m 0",
      "G h",
      "z y",
      "u Q",
      "j w",
      "I 1",
      "x Z",
      "I 2",
      "p S",
      "v V",
      "f Z",
      "W A",
      "X ,",
      "s V",
      "P ,",
      "l T",
      "b e",
      "m Z",
      "p C",
      "▁t r",
      "K k",
      "R M",
      "o i",
      "5 x",
      "H Q",
      "H M",
      "q j",
      "s g",
      "p N",
      "K 7",
      "d L",
      "▁10 1,",
      "q r",
      "l E",
      "e ,",
      "T IM",
      "z v",
      "c M",
      "b L",
      "o A",
      "p ,",
      "p a",
      "n L",
      "▁2 )\n);",
      "c Q",
      "4 D",
      "y g",
      "f G",
      "k D",
      "b D",
      "J 6",
      "C ,",
      "u M",
      "4 L",
      "s j",
      "I __",
      "n D",
      "N ,",
      "B 3",
      "m G",
      "7 D",
      "J ,",
      "u R",
      "▁_ w",
      "F 3",
      "X 6",
      "U 9",
      "z t",
      "5 6",
      "q K",
      "a 2",
      "U 3",
      "O 2",
      "V w",
      "5 G",
      "Z h",
      "s r",
      "▁1 50",
      "H W",
      "v r",
      "v j",
      "d E",
      "i B",
      "x Y",
      "C 6",
      "89 0",
      "c R",
      "UM( '",
      "▁EN UM('",
      "U 8",
      "O 1",
      "S ,",
      "P 6",
      "c 9",
      "f Y",
      "7 L",
      "t w",
      "k L",
      "x h",
      "t g",
      "4 l",
      "c W",
      "7 l",
      "o B",
      "u W",
      "5 Z",
      "d T",
      "A B",
      "A F",
      "m Y",
      "4 e",
      "p 6",
      "v K",
      "es s",
      "m z",
      "▁_ k",
      "J H",
      "b E",
      "x z",
      "U a",
      "R W",
      "O __",
      "i F",
      "▁' H",
      "b T",
      "7 e",
      "t V",
      "X Q",
      "4 T",
      "N 6",
      "S 6",
      "s K",
      "m h",
      "0 Y",
      "0 Z",
      "0 G",
      "7 ,",
      "n T",
      "y r",
      "y V",
      "y j",
      "4 E",
      "f z",
      "X H",
      "p H",
      "7 T",
      "M i",
      "o F",
      "J Q",
      "0 h",
      "f h",
      "q w",
      "g w",
      "c 8",
      "S u",
      "j k",
      "P H",
      "5 z",
      "A 9",
      "1 ),\n",
      "7 E",
      "C u",
      "5 Y",
      "P Q",
      "W B",
      "n E",
      "b 6",
      "V k",
      "y K",
      "X u",
      "J u",
      "S H",
      "X M",
      "8 O",
      "N H",
      "o 9",
      "C Q",
      "▁1 23",
      "P u",
      "g k",
      "t j",
      "p Q",
      "S Q",
      "▁3 0",
      "es t",
      "o U",
      "X R",
      "1 I",
      "1 __",
      "P M",
      "i 9",
      "N Q",
      "q k",
      "g e",
      "2 I",
      "p u",
      "A U",
      "J M",
      "0 z",
      ". doe",
      "2 __",
      "o 3",
      "5 h",
      "N u",
      "c 3",
      "C M",
      "▁KEY,\n _",
      "i U",
      "f r",
      "t K",
      "i 3",
      "s k",
      "X W",
      "w D",
      "i 8",
      "F O",
      "6 9",
      "o 8",
      "o a",
      "A 3",
      "▁_ n",
      "P R",
      "▁' E",
      "-01 -01",
      "A 8",
      "G v",
      "▁'2022-0 2",
      "▁_ 7",
      "y w",
      "a ct",
      "S M",
      "A a",
      "▁_ 4",
      "P W",
      "K n",
      "C c",
      "D e",
      "Z v",
      "▁_ l",
      "L e",
      "d 6",
      "g l",
      "▁G E",
      "B O",
      "r w",
      "C R",
      "T I",
      "J R",
      "▁_ b",
      "N R",
      "N W",
      "Y v",
      "1 ',",
      "U O",
      "j n",
      "f v",
      "Z y",
      "N M",
      "▁Y ork",
      "K l",
      "z q",
      "Z q",
      "S W",
      "J W",
      "p W",
      "F I",
      "x v",
      "Y q",
      "U I",
      "p M",
      "X c",
      "J c",
      "N c",
      "S c",
      "V n",
      "r k",
      "C W",
      "a O",
      "K b",
      "m v",
      "Y s",
      "▁_ D",
      "V D",
      "▁BOOLEAN \n);\n\nCREATE",
      "S R",
      "6 W",
      "9 O",
      "g n",
      "Z s",
      "j b",
      "a I",
      "▁_ L",
      "K L",
      "P c",
      "m s",
      "E e",
      "G y",
      "z s",
      "V 7",
      "▁'12 3e4567-e89b-12d3-a456-426614174000",
      "F __",
      "x y",
      "K D",
      "▁2 00",
      "j l",
      "j D",
      "Z t",
      "Y t",
      "j 7",
      "B I",
      "6 R",
      "k T",
      "x t",
      "▁VARCHAR(2 00",
      "f y",
      "w l",
      "w L",
      "- b",
      "V 4",
      "V b",
      "r d",
      "m y",
      "V l",
      "p R",
      "G t",
      "8 __",
      "-12 -31",
      "o O",
      ": 45",
      "h q",
      "f t",
      "x s",
      "g b",
      "j L",
      "G q",
      "8 I",
      "h v",
      "x q",
      "6 M",
      "a __",
      "3 O",
      "U __",
      "g 7",
      "h s",
      "▁_ d",
      "G s",
      "▁_ T",
      "A O",
      "p c",
      "k E",
      "g 4",
      "k d",
      "B __",
      ":30 :00',",
      ". 50",
      "j 4",
      "f 7",
      "20 22",
      "B 2",
      "m q",
      "K 4",
      "9 I",
      "F 2",
      "g L",
      "9 __",
      "B 1",
      "▁_ E",
      "F 1",
      "m t",
      "3 __",
      "V L",
      "G r",
      "z r",
      "w d",
      "g d",
      "3 )",
      "3 I",
      "A 1",
      "K T",
      "g D",
      "f q",
      "Y r",
      "A I",
      "U 1",
      "f s",
      "▁(10 1,",
      "i I",
      "▁KEY (",
      "5 v",
      "i 1",
      "h r",
      "K d",
      "w E",
      "i __",
      "i O",
      "- 30",
      "A __",
      "w T",
      "▁'john .doe",
      "▁UUID \n);",
      "6 8",
      "V d",
      "o I",
      "0 v",
      "w e",
      "0 y",
      "o 1",
      "V T",
      "o __",
      "5 y",
      "Z r",
      "er s",
      "5 q",
      "-20 ',",
      "j d",
      "▁f or",
      "▁3 ,",
      "0 q",
      "n c",
      "▁VARCHAR(10 )\n);\n\nCREATE",
      "U 2",
      "▁'2022-0 3",
      "k e",
      "▁'2022-01 -15",
      "5 t",
      "K E",
      "V E",
      "x r",
      "5 s",
      "▁1 );",
      "g T",
      "j E",
      "▁1 5",
      "m r",
      "A 2",
      "f 4",
      "▁' T",
      "j T",
      "▁10 ;",
      "0 t",
      "5 r",
      "i 2",
      "er ',",
      "iv e",
      "g E",
      "0 s",
      "o 2",
      "f d",
      "f b",
      "Q B",
      "6 a",
      "ou nt",
      "▁50 00",
      "6 3",
      "f l",
      "01 ;",
      "▁0 9",
      "G L",
      "ing ',",
      "c a",
      "M B",
      "f k",
      "v 4",
      "- 5",
      "W 9",
      "P o",
      "K e",
      "u i",
      "X 9",
      "z j",
      "Y V",
      "Q F",
      "m g",
      "M F",
      "u 9",
      "J B",
      "0 r",
      "s l",
      "P i",
      "z g",
      "P B",
      "Q i",
      "Q 9",
      "J F",
      "C i",
      "X B",
      "G V",
      "T H",
      "▁_ e",
      "z V",
      "W F",
      "- 11",
      "X F",
      "X i",
      "W 8",
      "M 9",
      "z k",
      "q 4",
      "v k",
      "▁100 ;",
      "Z g",
      "q 7",
      "h w",
      "n ,",
      "q l",
      "Y w",
      "P 9",
      "u F",
      "c 2",
      "C F",
      "p o",
      "x V",
      "1 )",
      "f e",
      "6 F",
      "Y K",
      "H F",
      "y l",
      "M U",
      "C A",
      "at e",
      "Q 8",
      "C B",
      "Y j",
      "h j",
      "z K",
      "Y g",
      "p i",
      "G k",
      "Z K",
      "C 9",
      "c B",
      "Z j",
      "y k",
      "c F",
      "Z w",
      "Q A",
      "X U",
      "Z V",
      "J i",
      "N 9",
      "G 7",
      "0 7",
      "G K",
      "H B",
      "ale ',",
      "6 i",
      "S A",
      "v w",
      "Y k",
      "q L",
      "Q o",
      "c 1",
      "▁'2022-0 6",
      ".00 );",
      "5 7",
      "P F",
      "h b",
      "6 2",
      "X A",
      "W U",
      "P U",
      "z w",
      "Q U",
      "x k",
      "G g",
      "y b",
      "h V",
      "m V",
      "Z k",
      "R B",
      "q d",
      "h g",
      "S i",
      "5 d",
      "J 9",
      "v 7",
      "C o",
      "M O",
      "0 4",
      "6 1",
      "p 9",
      "▁50 0",
      "H 9",
      "x g",
      "Q a",
      "6 B",
      "q n",
      "S F",
      "D ,",
      "y 7",
      "t n",
      "5 4",
      "H i",
      "N F",
      "Q 3",
      "z l",
      "J A",
      "P A",
      "G j",
      "M a",
      "S 9",
      "X o",
      "p F",
      "M A",
      "q b",
      "q u",
      "r n",
      "v b",
      "▁2 );",
      "R 9",
      "G w",
      "y 4",
      "y n",
      "z b",
      "s n",
      "{ \"",
      "C 8",
      "s 7",
      "z 7",
      "R i",
      "6 A",
      "y L",
      "N B",
      "f j",
      "W __",
      "v n",
      "h 7",
      "z n",
      "f g",
      "J 3",
      "N U",
      "q D",
      "W a",
      "J U",
      "W 3",
      "X O",
      "J o",
      "x j",
      "t l",
      "x K",
      "R F",
      "p B",
      "H o",
      "f V",
      "T ,",
      "r 7",
      "Q O",
      "X 3",
      "z D",
      "s on",
      "f K",
      "5 b",
      "J 8",
      "v e",
      "H U",
      "N o",
      "H 8",
      "s b",
      "Y n",
      "h k",
      "P 8",
      "u B",
      "Y 7",
      "v l",
      "C U",
      "X 8",
      "v d",
      "H a",
      "s d",
      "R A",
      "h K",
      "x l",
      "y D",
      "Y b",
      "X a",
      "G l",
      "R o",
      "y d",
      "v L",
      "N i",
      "Q __",
      "u o",
      "S 8",
      "m K",
      "r b",
      "Y 4",
      "m j",
      "t 7",
      "p U",
      "v D",
      "s D",
      "u a",
      "S B",
      "x 7",
      "s L",
      "0 V",
      "0 b",
      "z 4",
      "M 8",
      "P 3",
      "x 4",
      "u 8",
      "s 4",
      "u A",
      "N A",
      "Y L",
      "S U",
      "t k",
      "u U",
      "0 j",
      "x w",
      "7 5,",
      "H 3",
      "J a",
      "Q I",
      "Z L",
      "S o",
      "M 3",
      "W O",
      "6 U",
      "Y D",
      "m w",
      "t d",
      "Y l",
      "G e",
      "C O",
      "G 4",
      "N 8",
      "r 4",
      "q E",
      "Z 7",
      "h l",
      "5 K",
      "P a",
      "M __",
      "z L",
      "R 8",
      "P O",
      "▁'2022-0 8",
      "r l",
      "r L",
      "z d",
      "t L",
      "R a",
      "t b",
      "N 3",
      "H O",
      "Z 4",
      "c U",
      "m k",
      "Z l",
      "t D",
      "x b",
      "J O",
      "X I",
      "C 3",
      "5 j",
      "Z b",
      "p 8",
      "5 V",
      "p 3",
      "G D",
      "u O",
      "a il",
      "q T",
      "H A",
      "u 3",
      "W 1",
      "W I",
      "▁'2022-0 5",
      "0 d",
      "t 4",
      "f n",
      "% '",
      "C a",
      "m l",
      "G b",
      "h D",
      "r D",
      "c A",
      "5 g",
      "▁'123e4567-e89b-12d3-a456-426614174000 ';",
      "m 7",
      "m L",
      "S 3",
      "f w",
      "▁'12 3",
      "Z n",
      "* )",
      "5 k",
      "p O",
      "m n",
      "0 g",
      "0 K",
      "M I",
      "p A",
      "v T",
      "x D",
      "Y E",
      "f L",
      "0 k",
      "J I",
      "x n",
      "h L",
      "Z D",
      "s E",
      "h 4",
      "S a",
      "h n",
      "X __",
      "H I",
      "x L",
      "Q 1",
      "▁STRING \n);",
      "C I",
      "N O",
      "6 o",
      "f D",
      "m b",
      "Y d",
      "6 O",
      "u __",
      "G n",
      "R 3",
      "W 2",
      "▁10 1;",
      "G d",
      "Q 2",
      "▁D OU",
      "s T",
      "y E",
      "Z d",
      "▁i n",
      "S O",
      "6 __",
      "c O",
      "P I",
      "m D",
      "▁DOU BLE",
      "▁t he",
      "M 2",
      "v E",
      "c I",
      "M 1",
      "▁TRU E",
      "H __",
      "C __",
      "m 4",
      "N a",
      "R I",
      ". _",
      "p I",
      "h d",
      "Z T",
      "X 1",
      "▁o f",
      "0 l",
      "z E",
      "u I",
      "J __",
      "S __",
      "x d",
      "5 w",
      "5 l",
      "N __",
      "G T",
      "0 w",
      "N I",
      "▁COUNT( *)",
      "0 D",
      "P __",
      "y T",
      "p __",
      "X 2",
      "J 1",
      "G E",
      "P 2",
      "5 n",
      "z T",
      "18 ,",
      "R __",
      "C 1",
      "S I",
      "Y T",
      "▁'Al ice",
      "▁UNIQUE \n);\n\nCREATE",
      "t T",
      "▁DECIMAL(10,2 )\n);\n\nCREATE",
      "Z E",
      "RV AL",
      "▁DATE TIM",
      "at ed",
      "f T",
      "▁VARCHAR(20 )\n);",
      "▁INTE RVAL",
      "m E",
      "r E",
      "V e",
      "-0 2",
      "H 1",
      "▁a v",
      "▁DATETIM E",
      "c __",
      "P 1",
      "x T",
      "r T",
      "h E",
      "C 2",
      "p 1",
      "5 L",
      "m d",
      "' ),\n",
      "0 n",
      "u 1",
      "t E",
      "x E",
      "0 L",
      "u re",
      "y e",
      "6 I",
      "q e",
      ". 5",
      "▁5 ,",
      "0 e",
      "5 e",
      "5 D",
      "N 1",
      "f E",
      "R 1",
      "h T",
      "x p",
      "N 2",
      "J 2",
      "S 1",
      "- 9",
      "m e",
      "m T",
      "% ';",
      "Y e",
      "H 2",
      "p 2",
      "6 )",
      "S 2",
      "u 2",
      "z e",
      "▁' {\"",
      "ed ',",
      "R 2",
      "s ,",
      "5 T",
      "5 E",
      "00 00",
      "▁VARCHAR(15 )\n);\n\nCREATE",
      "0 E",
      "ic e',",
      "an ce",
      "Z e",
      "▁DECIMAL( 18,",
      "3 ),\n",
      "0 T",
      "8 )",
      "▁H AV",
      "▁CASCADE ;",
      "▁HAV ING",
      "N ER",
      "4 -",
      "x e",
      ":00:00 ');",
      "d ,",
      "▁INT,\n _",
      "l ,",
      "▁1 4",
      "L ,",
      "b ,",
      "s p",
      "k ,",
      "e a",
      "-15 '",
      "▁B ',",
      "V ,",
      "m in",
      "ig h",
      "ag e",
      "9 )",
      "K ,",
      "j ,",
      "w ,",
      "B )",
      "d i",
      "▁IN NER",
      "U )",
      "s u",
      "▁10 1",
      "F )",
      "▁( f",
      "O )",
      "pt ion",
      "-10 ',",
      "▁'2021 -0",
      "l o",
      "I )",
      "g ,",
      "▁ LE",
      "i )",
      "6 ),\n",
      "▁( m",
      "456 -7",
      "y ,",
      "▁VARCHAR(15 )",
      "▁BOOLEAN \n);",
      "t ',",
      "Q )",
      "a )",
      "f i",
      "y ',",
      "▁( z",
      "a ',",
      "v ,",
      "o )",
      "t ,",
      "M )",
      "▁'C om",
      "q ,",
      "Y ,",
      "▁( G",
      "▁'J ane",
      "▁( Z",
      ". ');",
      "▁( x",
      "in e",
      "W )",
      "X )",
      "▁ CHAR",
      "▁' In",
      "m p",
      "pd ated",
      "e 6",
      "-01 ',",
      "A )",
      "▁_ P",
      "r u",
      "▁_ X",
      "h ,",
      "b 8",
      "▁( 5",
      "▁_ J",
      "P )",
      "▁( 0",
      "ohn son",
      "N )",
      "C )",
      "r ,",
      "▁_ H",
      "J )",
      "5 9",
      "▁ CH",
      "▁TIMESTAMPTZ ,\n",
      "e o",
      "d c",
      "▁M ain"
    ]
  }
}